{
  "version": "1.0",
  "truncation": null,
  "padding": null,
  "added_tokens": [
    {
      "id": 0,
      "content": "<PAD>",
      "single_word": false,
      "lstrip": false,
      "rstrip": false,
      "normalized": false,
      "special": true
    },
    {
      "id": 1,
      "content": "<UNK>",
      "single_word": false,
      "lstrip": false,
      "rstrip": false,
      "normalized": false,
      "special": true
    },
    {
      "id": 2,
      "content": "<BOS>",
      "single_word": false,
      "lstrip": false,
      "rstrip": false,
      "normalized": false,
      "special": true
    },
    {
      "id": 3,
      "content": "<EOS>",
      "single_word": false,
      "lstrip": false,
      "rstrip": false,
      "normalized": false,
      "special": true
    }
  ],
  "normalizer": null,
  "pre_tokenizer": {
    "type": "Whitespace"
  },
  "post_processor": null,
  "decoder": null,
  "model": {
    "type": "BPE",
    "dropout": null,
    "unk_token": "<UNK>",
    "continuing_subword_prefix": null,
    "end_of_word_suffix": null,
    "fuse_unk": false,
    "byte_fallback": false,
    "ignore_merges": false,
    "vocab": {
      "<PAD>": 0,
      "<UNK>": 1,
      "<BOS>": 2,
      "<EOS>": 3,
      "!": 4,
      "\"": 5,
      "#": 6,
      "$": 7,
      "%": 8,
      "&": 9,
      "'": 10,
      "(": 11,
      ")": 12,
      "*": 13,
      "+": 14,
      ",": 15,
      "-": 16,
      ".": 17,
      "/": 18,
      "0": 19,
      "1": 20,
      "2": 21,
      "3": 22,
      "4": 23,
      "5": 24,
      "6": 25,
      "7": 26,
      "8": 27,
      "9": 28,
      ":": 29,
      ";": 30,
      "<": 31,
      "=": 32,
      ">": 33,
      "?": 34,
      "@": 35,
      "A": 36,
      "B": 37,
      "C": 38,
      "D": 39,
      "E": 40,
      "F": 41,
      "G": 42,
      "H": 43,
      "I": 44,
      "J": 45,
      "K": 46,
      "L": 47,
      "M": 48,
      "N": 49,
      "O": 50,
      "P": 51,
      "Q": 52,
      "R": 53,
      "S": 54,
      "T": 55,
      "U": 56,
      "V": 57,
      "W": 58,
      "X": 59,
      "Y": 60,
      "Z": 61,
      "[": 62,
      "\\": 63,
      "]": 64,
      "^": 65,
      "_": 66,
      "`": 67,
      "a": 68,
      "b": 69,
      "c": 70,
      "d": 71,
      "e": 72,
      "f": 73,
      "g": 74,
      "h": 75,
      "i": 76,
      "j": 77,
      "k": 78,
      "l": 79,
      "m": 80,
      "n": 81,
      "o": 82,
      "p": 83,
      "q": 84,
      "r": 85,
      "s": 86,
      "t": 87,
      "u": 88,
      "v": 89,
      "w": 90,
      "x": 91,
      "y": 92,
      "z": 93,
      "{": 94,
      "|": 95,
      "}": 96,
      "~": 97,
      "": 98,
      "": 99,
      "¡": 100,
      "¢": 101,
      "£": 102,
      "¥": 103,
      "§": 104,
      "¨": 105,
      "©": 106,
      "«": 107,
      "­": 108,
      "®": 109,
      "°": 110,
      "±": 111,
      "²": 112,
      "³": 113,
      "´": 114,
      "µ": 115,
      "¶": 116,
      "·": 117,
      "¹": 118,
      "º": 119,
      "»": 120,
      "¼": 121,
      "½": 122,
      "¾": 123,
      "¿": 124,
      "À": 125,
      "Á": 126,
      "Â": 127,
      "Ä": 128,
      "Å": 129,
      "Æ": 130,
      "Ç": 131,
      "È": 132,
      "É": 133,
      "Ì": 134,
      "Í": 135,
      "Î": 136,
      "Ñ": 137,
      "Ó": 138,
      "Ô": 139,
      "Ö": 140,
      "×": 141,
      "Ø": 142,
      "Ú": 143,
      "Ü": 144,
      "Ý": 145,
      "Þ": 146,
      "ß": 147,
      "à": 148,
      "á": 149,
      "â": 150,
      "ã": 151,
      "ä": 152,
      "å": 153,
      "æ": 154,
      "ç": 155,
      "è": 156,
      "é": 157,
      "ê": 158,
      "ë": 159,
      "ì": 160,
      "í": 161,
      "î": 162,
      "ï": 163,
      "ð": 164,
      "ñ": 165,
      "ò": 166,
      "ó": 167,
      "ô": 168,
      "õ": 169,
      "ö": 170,
      "÷": 171,
      "ø": 172,
      "ù": 173,
      "ú": 174,
      "û": 175,
      "ü": 176,
      "ý": 177,
      "þ": 178,
      "ÿ": 179,
      "Ā": 180,
      "ā": 181,
      "ă": 182,
      "ą": 183,
      "Ć": 184,
      "ć": 185,
      "Č": 186,
      "č": 187,
      "Đ": 188,
      "đ": 189,
      "ē": 190,
      "ė": 191,
      "ę": 192,
      "ě": 193,
      "ğ": 194,
      "ġ": 195,
      "ħ": 196,
      "ĩ": 197,
      "Ī": 198,
      "ī": 199,
      "İ": 200,
      "ı": 201,
      "ķ": 202,
      "ľ": 203,
      "Ł": 204,
      "ł": 205,
      "ń": 206,
      "ň": 207,
      "ŋ": 208,
      "Ō": 209,
      "ō": 210,
      "ŏ": 211,
      "ő": 212,
      "Œ": 213,
      "œ": 214,
      "ř": 215,
      "Ś": 216,
      "ś": 217,
      "Ş": 218,
      "ş": 219,
      "Š": 220,
      "š": 221,
      "Ţ": 222,
      "ţ": 223,
      "ť": 224,
      "ũ": 225,
      "ū": 226,
      "ŭ": 227,
      "ů": 228,
      "ų": 229,
      "ŵ": 230,
      "ŷ": 231,
      "Ź": 232,
      "ź": 233,
      "Ż": 234,
      "ż": 235,
      "Ž": 236,
      "ž": 237,
      "ƒ": 238,
      "ơ": 239,
      "ư": 240,
      "ǎ": 241,
      "ǐ": 242,
      "ǒ": 243,
      "ǔ": 244,
      "ǫ": 245,
      "Ș": 246,
      "ș": 247,
      "Ț": 248,
      "ț": 249,
      "ɐ": 250,
      "ɑ": 251,
      "ɒ": 252,
      "ɓ": 253,
      "ɔ": 254,
      "ɕ": 255,
      "ɖ": 256,
      "ɗ": 257,
      "ə": 258,
      "ɛ": 259,
      "ɟ": 260,
      "ɡ": 261,
      "ɣ": 262,
      "ɨ": 263,
      "ɪ": 264,
      "ɬ": 265,
      "ɯ": 266,
      "ɲ": 267,
      "ɴ": 268,
      "ɵ": 269,
      "ɾ": 270,
      "ʀ": 271,
      "ʁ": 272,
      "ʂ": 273,
      "ʃ": 274,
      "ʇ": 275,
      "ʊ": 276,
      "ʋ": 277,
      "ʌ": 278,
      "ʒ": 279,
      "ʔ": 280,
      "ʕ": 281,
      "ʰ": 282,
      "ʲ": 283,
      "ʻ": 284,
      "ʼ": 285,
      "ʾ": 286,
      "ʿ": 287,
      "ˀ": 288,
      "ˁ": 289,
      "ˈ": 290,
      "ˌ": 291,
      "ː": 292,
      "˔": 293,
      "˚": 294,
      "ˠ": 295,
      "˥": 296,
      "˦": 297,
      "˧": 298,
      "˨": 299,
      "˩": 300,
      "́": 301,
      "̂": 302,
      "̃": 303,
      "̄": 304,
      "̈": 305,
      "̊": 306,
      "̌": 307,
      "̍": 308,
      "̐": 309,
      "̚": 310,
      "̝": 311,
      "̞": 312,
      "̟": 313,
      "̥": 314,
      "̧": 315,
      "̩": 316,
      "̪": 317,
      "̯": 318,
      "̱": 319,
      "̺": 320,
      "͍": 321,
      "͡": 322,
      "Α": 323,
      "Β": 324,
      "Γ": 325,
      "Δ": 326,
      "Ε": 327,
      "Η": 328,
      "Θ": 329,
      "Ι": 330,
      "Κ": 331,
      "Λ": 332,
      "Μ": 333,
      "Ξ": 334,
      "Ο": 335,
      "Π": 336,
      "Σ": 337,
      "Τ": 338,
      "Φ": 339,
      "Χ": 340,
      "Ψ": 341,
      "Ω": 342,
      "ά": 343,
      "έ": 344,
      "ή": 345,
      "ί": 346,
      "α": 347,
      "β": 348,
      "γ": 349,
      "δ": 350,
      "ε": 351,
      "ζ": 352,
      "η": 353,
      "θ": 354,
      "ι": 355,
      "κ": 356,
      "λ": 357,
      "μ": 358,
      "ν": 359,
      "ξ": 360,
      "ο": 361,
      "π": 362,
      "ρ": 363,
      "ς": 364,
      "σ": 365,
      "τ": 366,
      "υ": 367,
      "φ": 368,
      "χ": 369,
      "ψ": 370,
      "ω": 371,
      "ό": 372,
      "ύ": 373,
      "ϕ": 374,
      "Ј": 375,
      "А": 376,
      "Б": 377,
      "В": 378,
      "Г": 379,
      "Д": 380,
      "З": 381,
      "И": 382,
      "К": 383,
      "М": 384,
      "Н": 385,
      "О": 386,
      "П": 387,
      "Р": 388,
      "С": 389,
      "Т": 390,
      "Я": 391,
      "а": 392,
      "б": 393,
      "в": 394,
      "г": 395,
      "д": 396,
      "е": 397,
      "ж": 398,
      "з": 399,
      "и": 400,
      "й": 401,
      "к": 402,
      "л": 403,
      "м": 404,
      "н": 405,
      "о": 406,
      "п": 407,
      "р": 408,
      "с": 409,
      "т": 410,
      "у": 411,
      "ц": 412,
      "ч": 413,
      "ъ": 414,
      "ы": 415,
      "ь": 416,
      "э": 417,
      "ю": 418,
      "я": 419,
      "ё": 420,
      "і": 421,
      "ј": 422,
      "љ": 423,
      "Հ": 424,
      "Ս": 425,
      "ա": 426,
      "բ": 427,
      "ե": 428,
      "ի": 429,
      "կ": 430,
      "հ": 431,
      "ղ": 432,
      "յ": 433,
      "ն": 434,
      "ո": 435,
      "ս": 436,
      "վ": 437,
      "տ": 438,
      "ր": 439,
      "ց": 440,
      "ւ": 441,
      "ք": 442,
      "֤": 443,
      "ֵ": 444,
      "ֶ": 445,
      "ּ": 446,
      "א": 447,
      "ב": 448,
      "ג": 449,
      "ו": 450,
      "ח": 451,
      "י": 452,
      "ל": 453,
      "ן": 454,
      "נ": 455,
      "ע": 456,
      "ר": 457,
      "ת": 458,
      "،": 459,
      "ء": 460,
      "أ": 461,
      "إ": 462,
      "ا": 463,
      "ب": 464,
      "ة": 465,
      "ت": 466,
      "ث": 467,
      "ج": 468,
      "ح": 469,
      "خ": 470,
      "د": 471,
      "ر": 472,
      "ز": 473,
      "س": 474,
      "ش": 475,
      "ع": 476,
      "غ": 477,
      "ق": 478,
      "ل": 479,
      "م": 480,
      "ن": 481,
      "ه": 482,
      "و": 483,
      "ي": 484,
      "ی": 485,
      "ं": 486,
      "अ": 487,
      "आ": 488,
      "उ": 489,
      "क": 490,
      "ग": 491,
      "ट": 492,
      "त": 493,
      "द": 494,
      "न": 495,
      "प": 496,
      "भ": 497,
      "म": 498,
      "य": 499,
      "र": 500,
      "ल": 501,
      "श": 502,
      "ष": 503,
      "स": 504,
      "ह": 505,
      "़": 506,
      "ा": 507,
      "ि": 508,
      "ी": 509,
      "ो": 510,
      "्": 511,
      "ক": 512,
      "ত": 513,
      "ল": 514,
      "া": 515,
      "ি": 516,
      "্": 517,
      "்": 518,
      "್": 519,
      "്": 520,
      "ก": 521,
      "ง": 522,
      "จ": 523,
      "ณ": 524,
      "ต": 525,
      "ท": 526,
      "น": 527,
      "ป": 528,
      "พ": 529,
      "ม": 530,
      "ย": 531,
      "ร": 532,
      "ล": 533,
      "ะ": 534,
      "ั": 535,
      "า": 536,
      "ิ": 537,
      "ี": 538,
      "ู": 539,
      "฿": 540,
      "เ": 541,
      "็": 542,
      "่": 543,
      "้": 544,
      "์": 545,
      "་": 546,
      "င": 547,
      "ဆ": 548,
      "န": 549,
      "ရ": 550,
      "္": 551,
      "်": 552,
      "გ": 553,
      "დ": 554,
      "ვ": 555,
      "კ": 556,
      "უ": 557,
      "ც": 558,
      "ძ": 559,
      "ხ": 560,
      "ᛃ": 561,
      "ត": 562,
      "ន": 563,
      "ព": 564,
      "ម": 565,
      "រ": 566,
      "ស": 567,
      "ហ": 568,
      "ី": 569,
      "ុ": 570,
      "ោ": 571,
      "ះ": 572,
      "់": 573,
      "្": 574,
      "᷉": 575,
      "ḍ": 576,
      "ḑ": 577,
      "Ḥ": 578,
      "ḥ": 579,
      "ḷ": 580,
      "ṃ": 581,
      "ṅ": 582,
      "ṇ": 583,
      "ṉ": 584,
      "ṛ": 585,
      "ṟ": 586,
      "ṣ": 587,
      "ṭ": 588,
      "ṯ": 589,
      "ạ": 590,
      "ả": 591,
      "ấ": 592,
      "ầ": 593,
      "ẩ": 594,
      "ẫ": 595,
      "ậ": 596,
      "ắ": 597,
      "ằ": 598,
      "ẵ": 599,
      "ặ": 600,
      "ẹ": 601,
      "ế": 602,
      "ề": 603,
      "ễ": 604,
      "ệ": 605,
      "ị": 606,
      "ọ": 607,
      "ỏ": 608,
      "ố": 609,
      "ồ": 610,
      "ổ": 611,
      "ỗ": 612,
      "ộ": 613,
      "ớ": 614,
      "ờ": 615,
      "ở": 616,
      "ợ": 617,
      "ụ": 618,
      "ủ": 619,
      "ứ": 620,
      "ừ": 621,
      "ử": 622,
      "ữ": 623,
      "ự": 624,
      "ỳ": 625,
      "ỹ": 626,
      "ἀ": 627,
      "ἄ": 628,
      "Ἀ": 629,
      "ἐ": 630,
      "ἱ": 631,
      "ἵ": 632,
      "Ἰ": 633,
      "ὁ": 634,
      "ὐ": 635,
      "ὑ": 636,
      "ὲ": 637,
      "ὴ": 638,
      "ὶ": 639,
      "ὸ": 640,
      "ὺ": 641,
      "ὼ": 642,
      "ᾶ": 643,
      "ῆ": 644,
      "ῖ": 645,
      "ῦ": 646,
      "Ῥ": 647,
      "ῶ": 648,
      "ῷ": 649,
      "​": 650,
      "‌": 651,
      "‍": 652,
      "‎": 653,
      "‐": 654,
      "‑": 655,
      "‒": 656,
      "–": 657,
      "—": 658,
      "―": 659,
      "‘": 660,
      "’": 661,
      "“": 662,
      "”": 663,
      "„": 664,
      "†": 665,
      "‡": 666,
      "•": 667,
      "…": 668,
      "‰": 669,
      "′": 670,
      "″": 671,
      "‼": 672,
      "⁄": 673,
      "⁡": 674,
      "₁": 675,
      "₂": 676,
      "₃": 677,
      "₡": 678,
      "₣": 679,
      "₤": 680,
      "₨": 681,
      "₩": 682,
      "€": 683,
      "₱": 684,
      "₹": 685,
      "ℓ": 686,
      "™": 687,
      "⅓": 688,
      "⅔": 689,
      "⅛": 690,
      "⅝": 691,
      "↑": 692,
      "→": 693,
      "↓": 694,
      "↗": 695,
      "↦": 696,
      "⇌": 697,
      "∂": 698,
      "∆": 699,
      "∈": 700,
      "∑": 701,
      "−": 702,
      "∗": 703,
      "√": 704,
      "∞": 705,
      "∩": 706,
      "∪": 707,
      "∴": 708,
      "≈": 709,
      "≠": 710,
      "≡": 711,
      "≢": 712,
      "≤": 713,
      "≥": 714,
      "≪": 715,
      "⊂": 716,
      "⊕": 717,
      "⊗": 718,
      "⊥": 719,
      "⋅": 720,
      "⌊": 721,
      "①": 722,
      "◦": 723,
      "★": 724,
      "☆": 725,
      "☉": 726,
      "☐": 727,
      "☑": 728,
      "☒": 729,
      "♀": 730,
      "♠": 731,
      "♣": 732,
      "♥": 733,
      "♦": 734,
      "♭": 735,
      "♯": 736,
      "⟨": 737,
      "⟩": 738,
      "⬥": 739,
      "、": 740,
      "。": 741,
      "〈": 742,
      "〉": 743,
      "「": 744,
      "」": 745,
      "『": 746,
      "』": 747,
      "〜": 748,
      "あ": 749,
      "い": 750,
      "お": 751,
      "か": 752,
      "が": 753,
      "き": 754,
      "く": 755,
      "こ": 756,
      "さ": 757,
      "し": 758,
      "す": 759,
      "ず": 760,
      "せ": 761,
      "た": 762,
      "つ": 763,
      "て": 764,
      "と": 765,
      "な": 766,
      "の": 767,
      "は": 768,
      "ば": 769,
      "ふ": 770,
      "ぽ": 771,
      "ま": 772,
      "み": 773,
      "よ": 774,
      "ら": 775,
      "り": 776,
      "る": 777,
      "ん": 778,
      "ァ": 779,
      "ア": 780,
      "ィ": 781,
      "イ": 782,
      "ウ": 783,
      "ェ": 784,
      "エ": 785,
      "ォ": 786,
      "オ": 787,
      "カ": 788,
      "ガ": 789,
      "キ": 790,
      "ギ": 791,
      "ク": 792,
      "グ": 793,
      "ケ": 794,
      "コ": 795,
      "ゴ": 796,
      "サ": 797,
      "ザ": 798,
      "シ": 799,
      "ジ": 800,
      "ス": 801,
      "ズ": 802,
      "セ": 803,
      "ゼ": 804,
      "ソ": 805,
      "タ": 806,
      "ダ": 807,
      "チ": 808,
      "ッ": 809,
      "ツ": 810,
      "テ": 811,
      "デ": 812,
      "ト": 813,
      "ド": 814,
      "ナ": 815,
      "ニ": 816,
      "ノ": 817,
      "ハ": 818,
      "バ": 819,
      "ヒ": 820,
      "フ": 821,
      "ブ": 822,
      "プ": 823,
      "ペ": 824,
      "ボ": 825,
      "ポ": 826,
      "マ": 827,
      "ミ": 828,
      "ム": 829,
      "メ": 830,
      "モ": 831,
      "ャ": 832,
      "ュ": 833,
      "ユ": 834,
      "ョ": 835,
      "ラ": 836,
      "リ": 837,
      "ル": 838,
      "レ": 839,
      "ロ": 840,
      "ワ": 841,
      "ン": 842,
      "ヴ": 843,
      "・": 844,
      "ー": 845,
      "一": 846,
      "不": 847,
      "个": 848,
      "久": 849,
      "之": 850,
      "人": 851,
      "令": 852,
      "伝": 853,
      "住": 854,
      "侠": 855,
      "催": 856,
      "光": 857,
      "净": 858,
      "凪": 859,
      "列": 860,
      "初": 861,
      "前": 862,
      "剛": 863,
      "剣": 864,
      "劇": 865,
      "勝": 866,
      "匹": 867,
      "卒": 868,
      "博": 869,
      "名": 870,
      "君": 871,
      "四": 872,
      "回": 873,
      "國": 874,
      "場": 875,
      "士": 876,
      "外": 877,
      "大": 878,
      "姉": 879,
      "字": 880,
      "寔": 881,
      "巨": 882,
      "廷": 883,
      "式": 884,
      "弘": 885,
      "张": 886,
      "張": 887,
      "彼": 888,
      "後": 889,
      "心": 890,
      "思": 891,
      "憲": 892,
      "戦": 893,
      "所": 894,
      "撃": 895,
      "新": 896,
      "方": 897,
      "日": 898,
      "星": 899,
      "春": 900,
      "時": 901,
      "書": 902,
      "月": 903,
      "本": 904,
      "束": 905,
      "条": 906,
      "條": 907,
      "椎": 908,
      "様": 909,
      "正": 910,
      "武": 911,
      "氏": 912,
      "民": 913,
      "氣": 914,
      "氾": 915,
      "流": 916,
      "海": 917,
      "溜": 918,
      "瀬": 919,
      "版": 920,
      "王": 921,
      "田": 922,
      "神": 923,
      "秋": 924,
      "積": 925,
      "空": 926,
      "章": 927,
      "約": 928,
      "紋": 929,
      "緑": 930,
      "編": 931,
      "群": 932,
      "羽": 933,
      "耕": 934,
      "聖": 935,
      "花": 936,
      "街": 937,
      "語": 938,
      "説": 939,
      "議": 940,
      "谷": 941,
      "路": 942,
      "進": 943,
      "道": 944,
      "遠": 945,
      "野": 946,
      "金": 947,
      "銀": 948,
      "雄": 949,
      "集": 950,
      "雪": 951,
      "零": 952,
      "靈": 953,
      "青": 954,
      "風": 955,
      "鬼": 956,
      "魂": 957,
      "魄": 958,
      "루": 959,
      "전": 960,
      "투": 961,
      "하": 962,
      "﻿": 963,
      "！": 964,
      "（": 965,
      "）": 966,
      "，": 967,
      "：": 968,
      "？": 969,
      "～": 970,
      "･": 971,
      "th": 972,
      "in": 973,
      "er": 974,
      "an": 975,
      "on": 976,
      "the": 977,
      "re": 978,
      "at": 979,
      "ed": 980,
      "en": 981,
      "or": 982,
      "es": 983,
      "al": 984,
      "and": 985,
      "as": 986,
      "ar": 987,
      "of": 988,
      "is": 989,
      "to": 990,
      "ing": 991,
      "it": 992,
      "ou": 993,
      "ion": 994,
      "ic": 995,
      "ro": 996,
      "st": 997,
      "le": 998,
      "ent": 999,
      "il": 1000,
      "he": 1001,
      "ac": 1002,
      "se": 1003,
      "om": 1004,
      "ad": 1005,
      "ly": 1006,
      "for": 1007,
      "ch": 1008,
      "un": 1009,
      "ve": 1010,
      "ur": 1011,
      "am": 1012,
      "de": 1013,
      "ct": 1014,
      "be": 1015,
      "ter": 1016,
      "ol": 1017,
      "im": 1018,
      "ation": 1019,
      "was": 1020,
      "ig": 1021,
      "lo": 1022,
      "ce": 1023,
      "con": 1024,
      "su": 1025,
      "ver": 1026,
      "ir": 1027,
      "The": 1028,
      "ay": 1029,
      "wh": 1030,
      "us": 1031,
      "ith": 1032,
      "20": 1033,
      "com": 1034,
      "id": 1035,
      "ment": 1036,
      "-@": 1037,
      "@-@": 1038,
      "our": 1039,
      "et": 1040,
      "ot": 1041,
      "with": 1042,
      "ag": 1043,
      "pro": 1044,
      "ab": 1045,
      "that": 1046,
      "per": 1047,
      "are": 1048,
      "tr": 1049,
      "te": 1050,
      "by": 1051,
      "ain": 1052,
      "ther": 1053,
      "ut": 1054,
      "ies": 1055,
      "ate": 1056,
      "ap": 1057,
      "ex": 1058,
      "res": 1059,
      "ul": 1060,
      "est": 1061,
      "el": 1062,
      "ts": 1063,
      "ow": 1064,
      "oun": 1065,
      "In": 1066,
      "cl": 1067,
      "pl": 1068,
      "ers": 1069,
      "19": 1070,
      "ill": 1071,
      "qu": 1072,
      "ere": 1073,
      "his": 1074,
      "rom": 1075,
      "iv": 1076,
      "pe": 1077,
      "if": 1078,
      "ated": 1079,
      "ive": 1080,
      "from": 1081,
      "sh": 1082,
      "mo": 1083,
      "ity": 1084,
      "ess": 1085,
      "du": 1086,
      "all": 1087,
      "ne": 1088,
      "po": 1089,
      "ial": 1090,
      "ber": 1091,
      "um": 1092,
      "unk": 1093,
      "act": 1094,
      "art": 1095,
      "igh": 1096,
      "ld": 1097,
      "ud": 1098,
      "ard": 1099,
      "we": 1100,
      "ich": 1101,
      "end": 1102,
      "pr": 1103,
      "em": 1104,
      "ant": 1105,
      "co": 1106,
      "so": 1107,
      "ip": 1108,
      "ort": 1109,
      "man": 1110,
      "ge": 1111,
      "ear": 1112,
      "were": 1113,
      "ak": 1114,
      "ions": 1115,
      "od": 1116,
      "red": 1117,
      "ong": 1118,
      "not": 1119,
      "which": 1120,
      "ie": 1121,
      "ha": 1122,
      "gh": 1123,
      "202": 1124,
      "comp": 1125,
      "fe": 1126,
      "str": 1127,
      "00": 1128,
      "ist": 1129,
      "af": 1130,
      "out": 1131,
      "der": 1132,
      "ser": 1133,
      "ame": 1134,
      "other": 1135,
      "low": 1136,
      "able": 1137,
      "gr": 1138,
      "op": 1139,
      "one": 1140,
      "ack": 1141,
      "had": 1142,
      "ary": 1143,
      "ish": 1144,
      "ough": 1145,
      "ments": 1146,
      "ib": 1147,
      "ign": 1148,
      "ations": 1149,
      "cr": 1150,
      "ian": 1151,
      "its": 1152,
      "age": 1153,
      "ould": 1154,
      "ure": 1155,
      "ep": 1156,
      "ine": 1157,
      "ck": 1158,
      "ue": 1159,
      "av": 1160,
      "ition": 1161,
      "over": 1162,
      "ical": 1163,
      "iz": 1164,
      "incl": 1165,
      "ast": 1166,
      "ass": 1167,
      "ia": 1168,
      "cre": 1169,
      "form": 1170,
      "St": 1171,
      "port": 1172,
      "ound": 1173,
      "up": 1174,
      "wor": 1175,
      "Ch": 1176,
      "have": 1177,
      "fin": 1178,
      "cont": 1179,
      "cur": 1180,
      "cor": 1181,
      "dis": 1182,
      "aw": 1183,
      "ore": 1184,
      "ide": 1185,
      "ire": 1186,
      "ens": 1187,
      "ll": 1188,
      "her": 1189,
      "tim": 1190,
      "ree": 1191,
      "ark": 1192,
      "ous": 1193,
      "ight": 1194,
      "duct": 1195,
      "but": 1196,
      "any": 1197,
      "ance": 1198,
      "part": 1199,
      "anc": 1200,
      "fer": 1201,
      "fir": 1202,
      "li": 1203,
      "ater": 1204,
      "ach": 1205,
      "tw": 1206,
      "ase": 1207,
      "ren": 1208,
      "ased": 1209,
      "mer": 1210,
      "includ": 1211,
      "ev": 1212,
      "ss": 1213,
      "rev": 1214,
      "au": 1215,
      "also": 1216,
      "vic": 1217,
      "their": 1218,
      "year": 1219,
      "ities": 1220,
      "own": 1221,
      "ted": 1222,
      "bl": 1223,
      "mon": 1224,
      "10": 1225,
      "bo": 1226,
      "ans": 1227,
      "18": 1228,
      "200": 1229,
      "first": 1230,
      "me": 1231,
      "br": 1232,
      "uring": 1233,
      "ally": 1234,
      "mber": 1235,
      "ke": 1236,
      "inter": 1237,
      "rel": 1238,
      "ang": 1239,
      "ust": 1240,
      "tain": 1241,
      "Th": 1242,
      "arr": 1243,
      "pres": 1244,
      "ory": 1245,
      "ating": 1246,
      "rit": 1247,
      "att": 1248,
      "has": 1249,
      "land": 1250,
      "ile": 1251,
      "ence": 1252,
      "reg": 1253,
      "ates": 1254,
      "who": 1255,
      "Com": 1256,
      "ef": 1257,
      "may": 1258,
      "cent": 1259,
      "sp": 1260,
      "ail": 1261,
      "this": 1262,
      "ome": 1263,
      "ied": 1264,
      "He": 1265,
      "des": 1266,
      "product": 1267,
      "ok": 1268,
      "ors": 1269,
      "been": 1270,
      "illion": 1271,
      "oper": 1272,
      "pos": 1273,
      "fic": 1274,
      "ction": 1275,
      "time": 1276,
      "Un": 1277,
      "ax": 1278,
      "ell": 1279,
      "min": 1280,
      "old": 1281,
      "work": 1282,
      "ace": 1283,
      "ade": 1284,
      "air": 1285,
      "inv": 1286,
      "cess": 1287,
      "play": 1288,
      "og": 1289,
      "int": 1290,
      "son": 1291,
      "two": 1292,
      "An": 1293,
      "ty": 1294,
      "cord": 1295,
      "ents": 1296,
      "sub": 1297,
      ".@": 1298,
      "@.@": 1299,
      "cus": 1300,
      "new": 1301,
      "cal": 1302,
      "ings": 1303,
      "fr": 1304,
      "Con": 1305,
      "coun": 1306,
      "ash": 1307,
      "after": 1308,
      "sul": 1309,
      "ced": 1310,
      "spe": 1311,
      "cond": 1312,
      "ener": 1313,
      "fect": 1314,
      "ph": 1315,
      "ific": 1316,
      "ved": 1317,
      ",@": 1318,
      "@,@": 1319,
      "no": 1320,
      "come": 1321,
      "ited": 1322,
      "De": 1323,
      "into": 1324,
      "they": 1325,
      "fore": 1326,
      "ind": 1327,
      "ite": 1328,
      "We": 1329,
      "cons": 1330,
      "exp": 1331,
      "fil": 1332,
      "15": 1333,
      "including": 1334,
      "servic": 1335,
      "main": 1336,
      "12": 1337,
      "It": 1338,
      "cer": 1339,
      "urn": 1340,
      "ever": 1341,
      "would": 1342,
      "ship": 1343,
      "such": 1344,
      "more": 1345,
      "resul": 1346,
      "dr": 1347,
      "abil": 1348,
      "vers": 1349,
      "30": 1350,
      "under": 1351,
      "arch": 1352,
      "ative": 1353,
      "amp": 1354,
      "pre": 1355,
      "add": 1356,
      "she": 1357,
      "ci": 1358,
      "ann": 1359,
      "ual": 1360,
      "ange": 1361,
      "row": 1362,
      "peri": 1363,
      "ason": 1364,
      "En": 1365,
      "pt": 1366,
      "bet": 1367,
      "rough": 1368,
      "comm": 1369,
      "As": 1370,
      "les": 1371,
      "way": 1372,
      "him": 1373,
      "mark": 1374,
      "could": 1375,
      "sy": 1376,
      "sto": 1377,
      "Ar": 1378,
      "fl": 1379,
      "ollow": 1380,
      "used": 1381,
      "ix": 1382,
      "ick": 1383,
      "ice": 1384,
      "iness": 1385,
      "13": 1386,
      "sup": 1387,
      "velo": 1388,
      "prov": 1389,
      "ward": 1390,
      "Au": 1391,
      "bec": 1392,
      "bus": 1393,
      "go": 1394,
      "ake": 1395,
      "je": 1396,
      "most": 1397,
      "do": 1398,
      "Ne": 1399,
      "lect": 1400,
      "Ro": 1401,
      "ious": 1402,
      "Re": 1403,
      "ces": 1404,
      "than": 1405,
      "during": 1406,
      "For": 1407,
      "when": 1408,
      "14": 1409,
      "ended": 1410,
      "tax": 1411,
      "16": 1412,
      "17": 1413,
      "ict": 1414,
      "Al": 1415,
      "set": 1416,
      "ational": 1417,
      "col": 1418,
      "high": 1419,
      "med": 1420,
      "ters": 1421,
      "cap": 1422,
      "iss": 1423,
      "por": 1424,
      "net": 1425,
      "On": 1426,
      "can": 1427,
      "ful": 1428,
      "aid": 1429,
      "ized": 1430,
      "io": 1431,
      "through": 1432,
      "ret": 1433,
      "char": 1434,
      "imp": 1435,
      "ubl": 1436,
      "ily": 1437,
      "incre": 1438,
      "ject": 1439,
      "velop": 1440,
      "pect": 1441,
      "tem": 1442,
      "stru": 1443,
      "ton": 1444,
      "again": 1445,
      "ild": 1446,
      "business": 1447,
      "requ": 1448,
      "ob": 1449,
      "gan": 1450,
      "31": 1451,
      "ancial": 1452,
      "three": 1453,
      "day": 1454,
      "ween": 1455,
      "follow": 1456,
      "ting": 1457,
      "Le": 1458,
      "use": 1459,
      "Se": 1460,
      "11": 1461,
      "num": 1462,
      "lar": 1463,
      "Wh": 1464,
      "though": 1465,
      "ult": 1466,
      "ten": 1467,
      "tern": 1468,
      "some": 1469,
      "uary": 1470,
      "state": 1471,
      "cy": 1472,
      "bu": 1473,
      "between": 1474,
      "where": 1475,
      "products": 1476,
      "ican": 1477,
      "develop": 1478,
      "tom": 1479,
      "rele": 1480,
      "these": 1481,
      "million": 1482,
      "ision": 1483,
      "No": 1484,
      "only": 1485,
      "sign": 1486,
      "film": 1487,
      "about": 1488,
      "ics": 1489,
      "199": 1490,
      "services": 1491,
      "nor": 1492,
      "well": 1493,
      "years": 1494,
      "pur": 1495,
      "eng": 1496,
      "record": 1497,
      "reven": 1498,
      "them": 1499,
      "iew": 1500,
      "led": 1501,
      "game": 1502,
      "ired": 1503,
      "New": 1504,
      "contin": 1505,
      "olog": 1506,
      "cial": 1507,
      "ise": 1508,
      "ath": 1509,
      "val": 1510,
      "while": 1511,
      "ular": 1512,
      "Jo": 1513,
      "later": 1514,
      "ures": 1515,
      "gener": 1516,
      "based": 1517,
      "sing": 1518,
      "ext": 1519,
      "ks": 1520,
      "song": 1521,
      "trans": 1522,
      "000": 1523,
      "vel": 1524,
      "off": 1525,
      "ived": 1526,
      "cho": 1527,
      "Amer": 1528,
      "ident": 1529,
      "ales": 1530,
      "invest": 1531,
      "cost": 1532,
      "market": 1533,
      "season": 1534,
      "Br": 1535,
      "outh": 1536,
      "__": 1537,
      "made": 1538,
      "equ": 1539,
      "will": 1540,
      "Comp": 1541,
      "irect": 1542,
      "period": 1543,
      "leg": 1544,
      "ning": 1545,
      "curren": 1546,
      "dif": 1547,
      "contr": 1548,
      "ird": 1549,
      "pol": 1550,
      "there": 1551,
      "ths": 1552,
      "rece": 1553,
      "writ": 1554,
      "stem": 1555,
      "par": 1556,
      "mat": 1557,
      "ense": 1558,
      "second": 1559,
      "ross": 1560,
      "ese": 1561,
      "publ": 1562,
      "reat": 1563,
      "long": 1564,
      "sel": 1565,
      "ause": 1566,
      "my": 1567,
      "due": 1568,
      "then": 1569,
      "ub": 1570,
      "gu": 1571,
      "clo": 1572,
      "number": 1573,
      "income": 1574,
      "four": 1575,
      "ins": 1576,
      "50": 1577,
      "This": 1578,
      "ond": 1579,
      "ished": 1580,
      "certain": 1581,
      "before": 1582,
      "2024": 1583,
      "ability": 1584,
      "addition": 1585,
      "stock": 1586,
      "against": 1587,
      "Sh": 1588,
      "financial": 1589,
      "back": 1590,
      "kn": 1591,
      "appe": 1592,
      "many": 1593,
      "ible": 1594,
      "Tr": 1595,
      "als": 1596,
      "ames": 1597,
      "iel": 1598,
      "term": 1599,
      "ared": 1600,
      "bum": 1601,
      "Cl": 1602,
      "ior": 1603,
      "call": 1604,
      "effect": 1605,
      "une": 1606,
      "ues": 1607,
      "Nor": 1608,
      "lead": 1609,
      "team": 1610,
      "owever": 1611,
      "contro": 1612,
      "oc": 1613,
      "ra": 1614,
      "Dece": 1615,
      "related": 1616,
      "2023": 1617,
      "ma": 1618,
      "Sep": 1619,
      "December": 1620,
      "plo": 1621,
      "ood": 1622,
      "fact": 1623,
      "chn": 1624,
      "line": 1625,
      "Ex": 1626,
      "being": 1627,
      "offic": 1628,
      "overn": 1629,
      "ered": 1630,
      "secur": 1631,
      "system": 1632,
      "present": 1633,
      "ving": 1634,
      "United": 1635,
      "tember": 1636,
      "Bo": 1637,
      "ases": 1638,
      "September": 1639,
      "road": 1640,
      "mus": 1641,
      "sur": 1642,
      "oup": 1643,
      "billion": 1644,
      "Pro": 1645,
      "ince": 1646,
      "change": 1647,
      "itions": 1648,
      "Af": 1649,
      "ress": 1650,
      "ave": 1651,
      "chang": 1652,
      "like": 1653,
      "ank": 1654,
      "May": 1655,
      "Pr": 1656,
      "spec": 1657,
      "design": 1658,
      "var": 1659,
      "album": 1660,
      "sever": 1661,
      "suc": 1662,
      "stand": 1663,
      "cash": 1664,
      "ode": 1665,
      "comple": 1666,
      "ife": 1667,
      "ury": 1668,
      "ale": 1669,
      "..": 1670,
      "both": 1671,
      "bel": 1672,
      "mem": 1673,
      "epis": 1674,
      "Ac": 1675,
      "ata": 1676,
      "At": 1677,
      "ry": 1678,
      "sets": 1679,
      "ris": 1680,
      "feat": 1681,
      "ose": 1682,
      "show": 1683,
      "25": 1684,
      "ars": 1685,
      "unt": 1686,
      "issu": 1687,
      "Company": 1688,
      "istr": 1689,
      "ised": 1690,
      "ys": 1691,
      "ven": 1692,
      "support": 1693,
      "became": 1694,
      "Jan": 1695,
      "olid": 1696,
      "report": 1697,
      "June": 1698,
      "charac": 1699,
      "ner": 1700,
      "custom": 1701,
      "II": 1702,
      "remain": 1703,
      "2022": 1704,
      "ost": 1705,
      "law": 1706,
      "techn": 1707,
      "Brit": 1708,
      "Fr": 1709,
      "direct": 1710,
      "down": 1711,
      "found": 1712,
      "2025": 1713,
      "cover": 1714,
      "ital": 1715,
      "loss": 1716,
      "dec": 1717,
      "os": 1718,
      "aim": 1719,
      "Be": 1720,
      "After": 1721,
      "third": 1722,
      "ude": 1723,
      "ificant": 1724,
      "included": 1725,
      "March": 1726,
      "head": 1727,
      "She": 1728,
      "igin": 1729,
      "ately": 1730,
      "ially": 1731,
      "less": 1732,
      "war": 1733,
      "und": 1734,
      "cut": 1735,
      "miss": 1736,
      "revenue": 1737,
      "gin": 1738,
      "24": 1739,
      "Gr": 1740,
      "series": 1741,
      "govern": 1742,
      "Ad": 1743,
      "ives": 1744,
      "ided": 1745,
      "ploy": 1746,
      "success": 1747,
      "198": 1748,
      "prev": 1749,
      "share": 1750,
      "28": 1751,
      "did": 1752,
      "la": 1753,
      "hn": 1754,
      "ons": 1755,
      "uch": 1756,
      "tion": 1757,
      "following": 1758,
      "tal": 1759,
      "ped": 1760,
      "Ju": 1761,
      "194": 1762,
      "ft": 1763,
      "Not": 1764,
      "return": 1765,
      "gust": 1766,
      "Our": 1767,
      "loc": 1768,
      "Mar": 1769,
      "iscal": 1770,
      "Wor": 1771,
      "just": 1772,
      "each": 1773,
      "dep": 1774,
      "significant": 1775,
      "Eng": 1776,
      "adver": 1777,
      "Oc": 1778,
      "sc": 1779,
      "ley": 1780,
      "iver": 1781,
      "bor": 1782,
      "arter": 1783,
      "customers": 1784,
      "several": 1785,
      "uture": 1786,
      "appro": 1787,
      "formation": 1788,
      "hel": 1789,
      "pass": 1790,
      "descr": 1791,
      "operating": 1792,
      "operations": 1793,
      "pop": 1794,
      "forman": 1795,
      "ivers": 1796,
      "Or": 1797,
      "lin": 1798,
      "prim": 1799,
      "rop": 1800,
      "hist": 1801,
      "even": 1802,
      "Octo": 1803,
      "ield": 1804,
      "episode": 1805,
      "fo": 1806,
      "ouse": 1807,
      "arm": 1808,
      "ier": 1809,
      "October": 1810,
      "origin": 1811,
      "said": 1812,
      "John": 1813,
      "ured": 1814,
      "class": 1815,
      "ively": 1816,
      "stud": 1817,
      "cour": 1818,
      "press": 1819,
      "self": 1820,
      "known": 1821,
      "August": 1822,
      "produ": 1823,
      "assets": 1824,
      "aking": 1825,
      "ution": 1826,
      "az": 1827,
      "ek": 1828,
      "26": 1829,
      "27": 1830,
      "oud": 1831,
      "Fin": 1832,
      "get": 1833,
      "result": 1834,
      "future": 1835,
      "ople": 1836,
      "23": 1837,
      "ief": 1838,
      "nam": 1839,
      "try": 1840,
      "29": 1841,
      "sm": 1842,
      "enses": 1843,
      "January": 1844,
      "cept": 1845,
      "American": 1846,
      "gn": 1847,
      "mater": 1848,
      "pay": 1849,
      "197": 1850,
      "July": 1851,
      "States": 1852,
      "months": 1853,
      "person": 1854,
      "acqu": 1855,
      "put": 1856,
      "ower": 1857,
      "jor": 1858,
      "purch": 1859,
      "crit": 1860,
      "soci": 1861,
      "consid": 1862,
      "called": 1863,
      "Ger": 1864,
      "Mon": 1865,
      "compet": 1866,
      "claim": 1867,
      "US": 1868,
      "place": 1869,
      "results": 1870,
      "aph": 1871,
      "inst": 1872,
      "early": 1873,
      "Other": 1874,
      "ards": 1875,
      "ists": 1876,
      "run": 1877,
      "open": 1878,
      "near": 1879,
      "until": 1880,
      "stor": 1881,
      "met": 1882,
      "current": 1883,
      "196": 1884,
      "estim": 1885,
      "Ind": 1886,
      "released": 1887,
      "large": 1888,
      "sales": 1889,
      "began": 1890,
      "chool": 1891,
      "Apr": 1892,
      "control": 1893,
      "Rep": 1894,
      "real": 1895,
      "changes": 1896,
      "ches": 1897,
      "iet": 1898,
      "ord": 1899,
      "partic": 1900,
      "performan": 1901,
      "allow": 1902,
      "jo": 1903,
      "olidated": 1904,
      "Pl": 1905,
      "ically": 1906,
      "government": 1907,
      "Fe": 1908,
      "uct": 1909,
      "music": 1910,
      "hold": 1911,
      "cogn": 1912,
      "attack": 1913,
      "ified": 1914,
      "April": 1915,
      "read": 1916,
      "non": 1917,
      "resp": 1918,
      "del": 1919,
      "Nove": 1920,
      "ele": 1921,
      "November": 1922,
      "gram": 1923,
      "Col": 1924,
      "because": 1925,
      "abilities": 1926,
      "ves": 1927,
      "subject": 1928,
      "same": 1929,
      "group": 1930,
      "differ": 1931,
      "iven": 1932,
      "ium": 1933,
      "bers": 1934,
      "company": 1935,
      "public": 1936,
      "40": 1937,
      "ica": 1938,
      "fiscal": 1939,
      "fam": 1940,
      "sum": 1941,
      "bal": 1942,
      "ather": 1943,
      "common": 1944,
      "gy": 1945,
      "band": 1946,
      "mil": 1947,
      "War": 1948,
      "affect": 1949,
      "ism": 1950,
      "six": 1951,
      "ute": 1952,
      "uro": 1953,
      "expect": 1954,
      "ued": 1955,
      "ages": 1956,
      "position": 1957,
      "21": 1958,
      "mot": 1959,
      "offer": 1960,
      "bre": 1961,
      "lim": 1962,
      "recogn": 1963,
      "build": 1964,
      "men": 1965,
      "ize": 1966,
      "along": 1967,
      "tle": 1968,
      "impact": 1969,
      "data": 1970,
      "inc": 1971,
      "Austr": 1972,
      "gg": 1973,
      "ded": 1974,
      "tow": 1975,
      "British": 1976,
      "grow": 1977,
      "costs": 1978,
      "arily": 1979,
      "interest": 1980,
      "aud": 1981,
      "ball": 1982,
      "those": 1983,
      "describ": 1984,
      "amoun": 1985,
      "cle": 1986,
      "people": 1987,
      "order": 1988,
      "Cont": 1989,
      "view": 1990,
      "vo": 1991,
      "State": 1992,
      "thor": 1993,
      "ble": 1994,
      "ca": 1995,
      "All": 1996,
      "ival": 1997,
      "lit": 1998,
      "value": 1999,
      "adv": 2000,
      "sof": 2001,
      "respect": 2002,
      "22": 2003,
      "Is": 2004,
      "world": 2005,
      "struct": 2006,
      "very": 2007,
      "graph": 2008,
      "Act": 2009,
      "sim": 2010,
      "top": 2011,
      "ref": 2012,
      "took": 2013,
      "make": 2014,
      "around": 2015,
      "now": 2016,
      "def": 2017,
      "activ": 2018,
      "However": 2019,
      "ology": 2020,
      "ah": 2021,
      "win": 2022,
      "organ": 2023,
      "include": 2024,
      "received": 2025,
      "World": 2026,
      "urther": 2027,
      "ron": 2028,
      "posed": 2029,
      "Tot": 2030,
      "character": 2031,
      "Bl": 2032,
      "mand": 2033,
      "ually": 2034,
      "aced": 2035,
      "ger": 2036,
      "ants": 2037,
      "formed": 2038,
      "cast": 2039,
      "ina": 2040,
      "life": 2041,
      "development": 2042,
      "Euro": 2043,
      "mit": 2044,
      "let": 2045,
      "major": 2046,
      "sequ": 2047,
      "dam": 2048,
      "Ser": 2049,
      "employ": 2050,
      "within": 2051,
      "performance": 2052,
      "gen": 2053,
      "div": 2054,
      "book": 2055,
      "Total": 2056,
      "ights": 2057,
      "ork": 2058,
      "elect": 2059,
      "mar": 2060,
      "ik": 2061,
      "sk": 2062,
      "Febr": 2063,
      "regul": 2064,
      "February": 2065,
      "plic": 2066,
      "small": 2067,
      "Man": 2068,
      "Sp": 2069,
      "track": 2070,
      "hal": 2071,
      "wards": 2072,
      "accoun": 2073,
      "mill": 2074,
      "thern": 2075,
      "ains": 2076,
      "36": 2077,
      "using": 2078,
      "Cor": 2079,
      "ances": 2080,
      "rest": 2081,
      "Austral": 2082,
      "km": 2083,
      "five": 2084,
      "batt": 2085,
      "Sc": 2086,
      "York": 2087,
      "service": 2088,
      "fair": 2089,
      "ler": 2090,
      "North": 2091,
      "action": 2092,
      "power": 2093,
      "Co": 2094,
      "information": 2095,
      "deb": 2096,
      "expenses": 2097,
      "side": 2098,
      "area": 2099,
      "ilar": 2100,
      "north": 2101,
      "agement": 2102,
      "carr": 2103,
      "short": 2104,
      "cording": 2105,
      "intern": 2106,
      "app": 2107,
      "By": 2108,
      "iving": 2109,
      "city": 2110,
      "ional": 2111,
      "____": 2112,
      "aft": 2113,
      "force": 2114,
      "start": 2115,
      "increased": 2116,
      "ural": 2117,
      "quarter": 2118,
      "During": 2119,
      "poss": 2120,
      "trib": 2121,
      "These": 2122,
      "belie": 2123,
      "Europe": 2124,
      "35": 2125,
      "single": 2126,
      "since": 2127,
      "ched": 2128,
      "enter": 2129,
      "final": 2130,
      "securities": 2131,
      "aged": 2132,
      "field": 2133,
      "lish": 2134,
      "ained": 2135,
      "total": 2136,
      "sol": 2137,
      "held": 2138,
      "They": 2139,
      "ization": 2140,
      "ending": 2141,
      "primarily": 2142,
      "ferred": 2143,
      "Lo": 2144,
      "ned": 2145,
      "ships": 2146,
      "light": 2147,
      "ane": 2148,
      "century": 2149,
      "turn": 2150,
      "vis": 2151,
      "dom": 2152,
      "material": 2153,
      "ians": 2154,
      "increase": 2155,
      "care": 2156,
      "ined": 2157,
      "ffic": 2158,
      "Ph": 2159,
      "sure": 2160,
      "event": 2161,
      "what": 2162,
      "tit": 2163,
      "ends": 2164,
      "ling": 2165,
      "34": 2166,
      "author": 2167,
      "Ge": 2168,
      "inte": 2169,
      "acts": 2170,
      "program": 2171,
      "ground": 2172,
      "ets": 2173,
      "west": 2174,
      "prote": 2175,
      "There": 2176,
      "lic": 2177,
      "statements": 2178,
      "termin": 2179,
      "Am": 2180,
      "review": 2181,
      "reach": 2182,
      "Can": 2183,
      "ently": 2184,
      "ime": 2185,
      "iam": 2186,
      "described": 2187,
      "foreign": 2188,
      "last": 2189,
      "bas": 2190,
      "King": 2191,
      "town": 2192,
      "ices": 2193,
      "Form": 2194,
      "38": 2195,
      "ness": 2196,
      "played": 2197,
      "ising": 2198,
      "name": 2199,
      "ceed": 2200,
      "avail": 2201,
      "ison": 2202,
      "Me": 2203,
      "additional": 2204,
      "urch": 2205,
      "previous": 2206,
      "bro": 2207,
      "ility": 2208,
      "sell": 2209,
      "37": 2210,
      "Will": 2211,
      "So": 2212,
      "Coun": 2213,
      "king": 2214,
      "Mc": 2215,
      "100": 2216,
      "won": 2217,
      "che": 2218,
      "among": 2219,
      "ensive": 2220,
      "ought": 2221,
      "ying": 2222,
      "init": 2223,
      "liabilities": 2224,
      "pat": 2225,
      "ister": 2226,
      "aver": 2227,
      "adverse": 2228,
      "den": 2229,
      "idge": 2230,
      "Car": 2231,
      "list": 2232,
      "ences": 2233,
      "Res": 2234,
      "require": 2235,
      "poin": 2236,
      "similar": 2237,
      "ben": 2238,
      "ric": 2239,
      "recorded": 2240,
      "gun": 2241,
      "school": 2242,
      "apan": 2243,
      "half": 2244,
      "hand": 2245,
      "moved": 2246,
      "When": 2247,
      "fail": 2248,
      "water": 2249,
      "ideo": 2250,
      "mp": 2251,
      "left": 2252,
      "cloud": 2253,
      "process": 2254,
      "point": 2255,
      "actions": 2256,
      "appear": 2257,
      "south": 2258,
      "another": 2259,
      "Japan": 2260,
      "rate": 2261,
      "ague": 2262,
      "Item": 2263,
      "crip": 2264,
      "German": 2265,
      "Ed": 2266,
      "sen": 2267,
      "sco": 2268,
      "avy": 2269,
      "60": 2270,
      "ature": 2271,
      "further": 2272,
      "prof": 2273,
      "polit": 2274,
      "much": 2275,
      "ilt": 2276,
      "ides": 2277,
      "South": 2278,
      "estab": 2279,
      "named": 2280,
      "flow": 2281,
      "local": 2282,
      "consolidated": 2283,
      "conom": 2284,
      "level": 2285,
      "trad": 2286,
      "camp": 2287,
      "fac": 2288,
      "thing": 2289,
      "experi": 2290,
      "ple": 2291,
      "tak": 2292,
      "child": 2293,
      "millions": 2294,
      "195": 2295,
      "sold": 2296,
      "tra": 2297,
      "home": 2298,
      "next": 2299,
      "tware": 2300,
      "mission": 2301,
      "na": 2302,
      "gre": 2303,
      "production": 2304,
      "Gu": 2305,
      "proper": 2306,
      "Ste": 2307,
      "hip": 2308,
      "rote": 2309,
      "kill": 2310,
      "acy": 2311,
      "story": 2312,
      "meas": 2313,
      "wrote": 2314,
      "various": 2315,
      "car": 2316,
      "tomer": 2317,
      "ste": 2318,
      "39": 2319,
      "house": 2320,
      "iversity": 2321,
      "hard": 2322,
      "2021": 2323,
      "attem": 2324,
      "Pe": 2325,
      "ney": 2326,
      "dustr": 2327,
      "right": 2328,
      "commun": 2329,
      "continued": 2330,
      "vi": 2331,
      "contract": 2332,
      "family": 2333,
      "party": 2334,
      "dist": 2335,
      "yal": 2336,
      "Net": 2337,
      "best": 2338,
      "mi": 2339,
      "death": 2340,
      "flu": 2341,
      "ulation": 2342,
      "different": 2343,
      "invol": 2344,
      "former": 2345,
      "stant": 2346,
      "original": 2347,
      "vir": 2348,
      "cred": 2349,
      "blig": 2350,
      "games": 2351,
      "vision": 2352,
      "decl": 2353,
      "members": 2354,
      "ali": 2355,
      "itive": 2356,
      "species": 2357,
      "investments": 2358,
      "vol": 2359,
      "ont": 2360,
      "bert": 2361,
      "move": 2362,
      "take": 2363,
      "...": 2364,
      "Oper": 2365,
      "49": 2366,
      "plan": 2367,
      "National": 2368,
      "placed": 2369,
      "eder": 2370,
      "revenues": 2371,
      "built": 2372,
      "days": 2373,
      "good": 2374,
      "generally": 2375,
      "Table": 2376,
      "truct": 2377,
      "available": 2378,
      "late": 2379,
      "0s": 2380,
      "fall": 2381,
      "ware": 2382,
      "required": 2383,
      "wide": 2384,
      "ator": 2385,
      "Gener": 2386,
      "release": 2387,
      "oute": 2388,
      "software": 2389,
      "fun": 2390,
      "command": 2391,
      "applic": 2392,
      "ines": 2393,
      "aining": 2394,
      "Her": 2395,
      "vent": 2396,
      "comb": 2397,
      "video": 2398,
      "often": 2399,
      "particular": 2400,
      "depend": 2401,
      "ties": 2402,
      "continue": 2403,
      "Contents": 2404,
      "still": 2405,
      "ient": 2406,
      "corpor": 2407,
      "match": 2408,
      "75": 2409,
      "ges": 2410,
      "successful": 2411,
      "search": 2412,
      "bod": 2413,
      "econom": 2414,
      "Des": 2415,
      "rist": 2416,
      "customer": 2417,
      "ably": 2418,
      "To": 2419,
      "ecut": 2420,
      "sed": 2421,
      "Sto": 2422,
      "His": 2423,
      "rench": 2424,
      "gment": 2425,
      "iers": 2426,
      "atory": 2427,
      "neg": 2428,
      "oblig": 2429,
      "hum": 2430,
      "ford": 2431,
      "expense": 2432,
      "version": 2433,
      "bur": 2434,
      "Reg": 2435,
      "employe": 2436,
      "security": 2437,
      "cas": 2438,
      "exist": 2439,
      "augh": 2440,
      "2010": 2441,
      "standing": 2442,
      "ats": 2443,
      "Par": 2444,
      "Ended": 2445,
      "AT": 2446,
      "ones": 2447,
      "compan": 2448,
      "associ": 2449,
      "without": 2450,
      "storm": 2451,
      "test": 2452,
      "Per": 2453,
      "mid": 2454,
      "see": 2455,
      "Te": 2456,
      "post": 2457,
      "reported": 2458,
      "ality": 2459,
      "considered": 2460,
      "anted": 2461,
      "demand": 2462,
      "role": 2463,
      "uted": 2464,
      "Ear": 2465,
      "infr": 2466,
      "although": 2467,
      "benef": 2468,
      "Although": 2469,
      "enn": 2470,
      "sent": 2471,
      "fel": 2472,
      "Qu": 2473,
      "respectively": 2474,
      "ask": 2475,
      "ham": 2476,
      "Mus": 2477,
      "45": 2478,
      "ds": 2479,
      "need": 2480,
      "ged": 2481,
      "Char": 2482,
      "ene": 2483,
      "debt": 2484,
      "represent": 2485,
      "great": 2486,
      "80": 2487,
      "however": 2488,
      "CO": 2489,
      "across": 2490,
      "provide": 2491,
      "redu": 2492,
      "French": 2493,
      "lands": 2494,
      "become": 2495,
      "compl": 2496,
      "33": 2497,
      "AI": 2498,
      "mercial": 2499,
      "announ": 2500,
      "came": 2501,
      "pract": 2502,
      "70": 2503,
      "ropical": 2504,
      "deli": 2505,
      "hy": 2506,
      "wind": 2507,
      "aster": 2508,
      "round": 2509,
      "Cour": 2510,
      "ink": 2511,
      "ample": 2512,
      "few": 2513,
      "look": 2514,
      "conne": 2515,
      "face": 2516,
      "One": 2517,
      "reason": 2518,
      "2011": 2519,
      "laws": 2520,
      "itary": 2521,
      "wom": 2522,
      "imes": 2523,
      "lease": 2524,
      "agree": 2525,
      "que": 2526,
      "William": 2527,
      "tar": 2528,
      "import": 2529,
      "Mo": 2530,
      "West": 2531,
      "Pres": 2532,
      "growth": 2533,
      "you": 2534,
      "priv": 2535,
      "90": 2536,
      "2009": 2537,
      "strong": 2538,
      "fri": 2539,
      "craft": 2540,
      "Air": 2541,
      "restr": 2542,
      "recognized": 2543,
      "omin": 2544,
      "say": 2545,
      "systems": 2546,
      "industr": 2547,
      "Financial": 2548,
      "asing": 2549,
      "mag": 2550,
      "While": 2551,
      "And": 2552,
      "date": 2553,
      "fav": 2554,
      "provided": 2555,
      "regard": 2556,
      "City": 2557,
      "ps": 2558,
      "General": 2559,
      "served": 2560,
      "every": 2561,
      "Dr": 2562,
      "aint": 2563,
      "rad": 2564,
      "located": 2565,
      "alth": 2566,
      "week": 2567,
      "intro": 2568,
      "Part": 2569,
      "urr": 2570,
      "Offic": 2571,
      "ufact": 2572,
      "pite": 2573,
      "2008": 2574,
      "tele": 2575,
      "management": 2576,
      "histor": 2577,
      "ho": 2578,
      "plat": 2579,
      "cu": 2580,
      "meet": 2581,
      "notes": 2582,
      "pot": 2583,
      "atter": 2584,
      "ike": 2585,
      "Pol": 2586,
      "Geor": 2587,
      "ery": 2588,
      "cause": 2589,
      "wood": 2590,
      "amount": 2591,
      "ential": 2592,
      "ateg": 2593,
      "Notes": 2594,
      "how": 2595,
      "capital": 2596,
      "dest": 2597,
      "ral": 2598,
      "uck": 2599,
      "project": 2600,
      "ampion": 2601,
      "losses": 2602,
      "player": 2603,
      "pen": 2604,
      "England": 2605,
      "general": 2606,
      "Inc": 2607,
      "aper": 2608,
      "ey": 2609,
      "board": 2610,
      "having": 2611,
      "should": 2612,
      "consist": 2613,
      "2007": 2614,
      "2012": 2615,
      "Christ": 2616,
      "average": 2617,
      "yle": 2618,
      "went": 2619,
      "ament": 2620,
      "activities": 2621,
      "purchase": 2622,
      "Report": 2623,
      "Park": 2624,
      "manufact": 2625,
      "written": 2626,
      "antic": 2627,
      "Mich": 2628,
      "ington": 2629,
      "ensation": 2630,
      "example": 2631,
      "Sy": 2632,
      "equity": 2633,
      "occur": 2634,
      "stit": 2635,
      "Dav": 2636,
      "fort": 2637,
      "estern": 2638,
      "career": 2639,
      "events": 2640,
      "ony": 2641,
      "Inter": 2642,
      "With": 2643,
      "forms": 2644,
      "Court": 2645,
      "upon": 2646,
      "building": 2647,
      "hib": 2648,
      "Go": 2649,
      "ivid": 2650,
      "sem": 2651,
      "Scot": 2652,
      "ety": 2653,
      "influ": 2654,
      "making": 2655,
      "acquis": 2656,
      "given": 2657,
      "struction": 2658,
      "concer": 2659,
      "fire": 2660,
      "serv": 2661,
      "English": 2662,
      "cir": 2663,
      "32": 2664,
      "begin": 2665,
      "High": 2666,
      "outs": 2667,
      "whe": 2668,
      "equip": 2669,
      "shares": 2670,
      "percent": 2671,
      "If": 2672,
      "rown": 2673,
      "model": 2674,
      "ification": 2675,
      "legal": 2676,
      "ither": 2677,
      "mix": 2678,
      "48": 2679,
      "east": 2680,
      "IT": 2681,
      "history": 2682,
      "relation": 2683,
      "Su": 2684,
      "stated": 2685,
      "conditions": 2686,
      "sou": 2687,
      "rup": 2688,
      "xim": 2689,
      "Canad": 2690,
      "foot": 2691,
      "),": 2692,
      "ministr": 2693,
      "sit": 2694,
      "sound": 2695,
      "prior": 2696,
      "ictions": 2697,
      "lock": 2698,
      "access": 2699,
      "ference": 2700,
      "ources": 2701,
      "club": 2702,
      "diffic": 2703,
      "Mark": 2704,
      "University": 2705,
      "ways": 2706,
      "ush": 2707,
      "mult": 2708,
      "fund": 2709,
      "Lond": 2710,
      "190": 2711,
      "developed": 2712,
      "Stock": 2713,
      "ggest": 2714,
      "London": 2715,
      "According": 2716,
      "maintain": 2717,
      "close": 2718,
      "suggest": 2719,
      "reet": 2720,
      "oung": 2721,
      "glo": 2722,
      "free": 2723,
      "commit": 2724,
      "expected": 2725,
      "Cap": 2726,
      "site": 2727,
      "lower": 2728,
      "seven": 2729,
      "covered": 2730,
      "46": 2731,
      "AN": 2732,
      "2013": 2733,
      "taxes": 2734,
      "Ap": 2735,
      "currency": 2736,
      "jud": 2737,
      "Bar": 2738,
      "clud": 2739,
      "River": 2740,
      "Val": 2741,
      "moder": 2742,
      "country": 2743,
      "hic": 2744,
      "times": 2745,
      "hour": 2746,
      "ators": 2747,
      "published": 2748,
      "night": 2749,
      "iment": 2750,
      "abo": 2751,
      "2026": 2752,
      "produced": 2753,
      "enced": 2754,
      "tee": 2755,
      "spect": 2756,
      "abor": 2757,
      "price": 2758,
      "omet": 2759,
      "draw": 2760,
      "tructure": 2761,
      "ners": 2762,
      "returned": 2763,
      "lood": 2764,
      "evol": 2765,
      "Min": 2766,
      "acce": 2767,
      "never": 2768,
      "father": 2769,
      "atic": 2770,
      "fle": 2771,
      "rights": 2772,
      "broad": 2773,
      "content": 2774,
      "star": 2775,
      "grad": 2776,
      "Batt": 2777,
      "ened": 2778,
      "range": 2779,
      "working": 2780,
      "ms": 2781,
      "adversely": 2782,
      "vices": 2783,
      "uation": 2784,
      "Months": 2785,
      "America": 2786,
      "uc": 2787,
      "aren": 2788,
      "base": 2789,
      "popular": 2790,
      "imin": 2791,
      "key": 2792,
      "lost": 2793,
      "announced": 2794,
      "gave": 2795,
      "does": 2796,
      "issued": 2797,
      "away": 2798,
      "aul": 2799,
      "astructure": 2800,
      "taken": 2801,
      "aign": 2802,
      "terms": 2803,
      "sl": 2804,
      "works": 2805,
      "vehic": 2806,
      "utions": 2807,
      "technology": 2808,
      "47": 2809,
      "scrip": 2810,
      "compared": 2811,
      "claims": 2812,
      "capt": 2813,
      "Div": 2814,
      "iff": 2815,
      "political": 2816,
      "2006": 2817,
      "lor": 2818,
      "anim": 2819,
      "decre": 2820,
      "Bal": 2821,
      "cross": 2822,
      "El": 2823,
      "associated": 2824,
      "marr": 2825,
      "err": 2826,
      "typ": 2827,
      "features": 2828,
      "thod": 2829,
      "igation": 2830,
      "nel": 2831,
      "Dis": 2832,
      "coming": 2833,
      "contracts": 2834,
      "tor": 2835,
      "Ma": 2836,
      "stat": 2837,
      "too": 2838,
      "polic": 2839,
      "tour": 2840,
      "possible": 2841,
      "rates": 2842,
      "ES": 2843,
      "ops": 2844,
      "front": 2845,
      "member": 2846,
      "compensation": 2847,
      "forces": 2848,
      "quad": 2849,
      "areas": 2850,
      "help": 2851,
      "body": 2852,
      "nine": 2853,
      "case": 2854,
      "ull": 2855,
      "roy": 2856,
      "hor": 2857,
      "others": 2858,
      "55": 2859,
      "ID": 2860,
      "cum": 2861,
      "uss": 2862,
      "full": 2863,
      "cop": 2864,
      "paid": 2865,
      "obligations": 2866,
      "ru": 2867,
      "nings": 2868,
      "tail": 2869,
      "Po": 2870,
      "rul": 2871,
      "gether": 2872,
      "bar": 2873,
      "himself": 2874,
      "military": 2875,
      "estimated": 2876,
      "advert": 2877,
      "commercial": 2878,
      "property": 2879,
      "economic": 2880,
      "BC": 2881,
      "cult": 2882,
      "tions": 2883,
      "vot": 2884,
      "akes": 2885,
      "cil": 2886,
      "consider": 2887,
      "determin": 2888,
      "tries": 2889,
      "companies": 2890,
      "ply": 2891,
      "atch": 2892,
      "jur": 2893,
      "research": 2894,
      "pted": 2895,
      "approxim": 2896,
      "ung": 2897,
      "urrican": 2898,
      "ancing": 2899,
      "Sm": 2900,
      "ederal": 2901,
      "periods": 2902,
      "battle": 2903,
      "har": 2904,
      "national": 2905,
      "tro": 2906,
      "2014": 2907,
      "European": 2908,
      "astern": 2909,
      "remained": 2910,
      "Three": 2911,
      "aircraft": 2912,
      "icted": 2913,
      "rew": 2914,
      "ipal": 2915,
      "iance": 2916,
      "IA": 2917,
      "impro": 2918,
      "Australia": 2919,
      "rock": 2920,
      "iple": 2921,
      "infrastructure": 2922,
      "individ": 2923,
      "ai": 2924,
      "lished": 2925,
      "gest": 2926,
      "ports": 2927,
      "songs": 2928,
      "Tw": 2929,
      "reed": 2930,
      "iting": 2931,
      "atively": 2932,
      "ama": 2933,
      "Note": 2934,
      "gl": 2935,
      "cies": 2936,
      "nia": 2937,
      "Jack": 2938,
      "sw": 2939,
      "James": 2940,
      "official": 2941,
      "Sen": 2942,
      "Intern": 2943,
      "promot": 2944,
      "500": 2945,
      "risks": 2946,
      "established": 2947,
      "clear": 2948,
      "ban": 2949,
      "Ber": 2950,
      "ago": 2951,
      "complete": 2952,
      "title": 2953,
      "lines": 2954,
      "special": 2955,
      "cing": 2956,
      "seen": 2957,
      "Har": 2958,
      "active": 2959,
      "Ag": 2960,
      "room": 2961,
      "Rom": 2962,
      "ency": 2963,
      "equipment": 2964,
      "portion": 2965,
      "requirements": 2966,
      "lected": 2967,
      "2015": 2968,
      "65": 2969,
      "higher": 2970,
      "focus": 2971,
      "Cash": 2972,
      "vice": 2973,
      "medi": 2974,
      "critic": 2975,
      "fan": 2976,
      "campaign": 2977,
      "ff": 2978,
      "Army": 2979,
      "ran": 2980,
      "effective": 2981,
      "uses": 2982,
      "utes": 2983,
      "designed": 2984,
      "performed": 2985,
      "protect": 2986,
      "189": 2987,
      "East": 2988,
      "lege": 2989,
      "idence": 2990,
      "court": 2991,
      "whether": 2992,
      "basis": 2993,
      "award": 2994,
      "children": 2995,
      "78": 2996,
      "omb": 2997,
      "caused": 2998,
      "isions": 2999,
      "eight": 3000,
      "vest": 3001,
      "adop": 3002,
      "ays": 3003,
      "distrib": 3004,
      "points": 3005,
      "AR": 3006,
      "factors": 3007,
      "tropical": 3008,
      "cru": 3009,
      "felt": 3010,
      "execut": 3011,
      "viol": 3012,
      "together": 3013,
      "construction": 3014,
      "ae": 3015,
      "viron": 3016,
      "ox": 3017,
      "station": 3018,
      "holders": 3019,
      "County": 3020,
      "President": 3021,
      "pra": 3022,
      "lot": 3023,
      "Year": 3024,
      "bridge": 3025,
      "defin": 3026,
      "Statements": 3027,
      "ael": 3028,
      "experience": 3029,
      "rap": 3030,
      "died": 3031,
      "ging": 3032,
      "created": 3033,
      "Division": 3034,
      "subsequ": 3035,
      "Japanese": 3036,
      "indic": 3037,
      "urricane": 3038,
      "condition": 3039,
      "Secur": 3040,
      "license": 3041,
      "usu": 3042,
      "followed": 3043,
      "international": 3044,
      "League": 3045,
      "noted": 3046,
      "Road": 3047,
      "Em": 3048,
      "characters": 3049,
      "teen": 3050,
      "damage": 3051,
      "66": 3052,
      "appeared": 3053,
      "throughout": 3054,
      "television": 3055,
      "either": 3056,
      "George": 3057,
      "ologies": 3058,
      "engine": 3059,
      "achie": 3060,
      "oney": 3061,
      "Cali": 3062,
      "aur": 3063,
      "ination": 3064,
      "separ": 3065,
      "administr": 3066,
      "includes": 3067,
      "important": 3068,
      "except": 3069,
      "Califor": 3070,
      "ream": 3071,
      "mental": 3072,
      "writing": 3073,
      "IN": 3074,
      "ster": 3075,
      "ention": 3076,
      "mis": 3077,
      "reached": 3078,
      "Sw": 3079,
      "atives": 3080,
      "2005": 3081,
      "ivil": 3082,
      "difficult": 3083,
      "Gre": 3084,
      "aff": 3085,
      "Some": 3086,
      "find": 3087,
      "44": 3088,
      "completed": 3089,
      "limited": 3090,
      "approximately": 3091,
      "exchange": 3092,
      "Ho": 3093,
      "ls": 3094,
      "inste": 3095,
      "ories": 3096,
      "acle": 3097,
      "AS": 3098,
      "Cons": 3099,
      "equival": 3100,
      "introdu": 3101,
      "California": 3102,
      "proceed": 3103,
      "energy": 3104,
      "forward": 3105,
      "itch": 3106,
      "Reven": 3107,
      "Fil": 3108,
      "pursu": 3109,
      "break": 3110,
      "ring": 3111,
      "iding": 3112,
      "hind": 3113,
      "entire": 3114,
      "ille": 3115,
      "Ang": 3116,
      "tell": 3117,
      "lying": 3118,
      "little": 3119,
      "discus": 3120,
      "lection": 3121,
      "Hen": 3122,
      "black": 3123,
      "individual": 3124,
      "filed": 3125,
      "style": 3126,
      "aries": 3127,
      "suppl": 3128,
      "shot": 3129,
      "regular": 3130,
      "amounts": 3131,
      "Afr": 3132,
      "above": 3133,
      "mm": 3134,
      "rain": 3135,
      "added": 3136,
      "credit": 3137,
      "leading": 3138,
      "wall": 3139,
      "ctions": 3140,
      "comes": 3141,
      "past": 3142,
      "ns": 3143,
      "You": 3144,
      "mph": 3145,
      "risk": 3146,
      "lack": 3147,
      "reporting": 3148,
      "host": 3149,
      "Bill": 3150,
      "di": 3151,
      "players": 3152,
      "supply": 3153,
      "Harr": 3154,
      "Mad": 3155,
      "ming": 3156,
      "tract": 3157,
      "friend": 3158,
      "favor": 3159,
      "AA": 3160,
      "oot": 3161,
      "________": 3162,
      "els": 3163,
      "sci": 3164,
      "integr": 3165,
      "conduct": 3166,
      "EM": 3167,
      "hit": 3168,
      "killed": 3169,
      "Med": 3170,
      "method": 3171,
      "ug": 3172,
      "cell": 3173,
      "industry": 3174,
      "gress": 3175,
      "profess": 3176,
      "Phil": 3177,
      "modern": 3178,
      "crew": 3179,
      "ulated": 3180,
      "ibility": 3181,
      "69": 3182,
      "instru": 3183,
      "destroy": 3184,
      "tre": 3185,
      "Street": 3186,
      "laun": 3187,
      "aring": 3188,
      "thought": 3189,
      "dy": 3190,
      "complex": 3191,
      "started": 3192,
      "environ": 3193,
      "Thom": 3194,
      "mal": 3195,
      "believe": 3196,
      "sex": 3197,
      "human": 3198,
      "compon": 3199,
      "regulations": 3200,
      "Black": 3201,
      "threat": 3202,
      "respond": 3203,
      "approach": 3204,
      "respons": 3205,
      "particip": 3206,
      "potential": 3207,
      "erson": 3208,
      "San": 3209,
      "Australian": 3210,
      "Ann": 3211,
      "isd": 3212,
      "parties": 3213,
      "2004": 3214,
      "77": 3215,
      "increasing": 3216,
      "race": 3217,
      "remaining": 3218,
      "payments": 3219,
      "dition": 3220,
      "My": 3221,
      "fourth": 3222,
      "Class": 3223,
      "saw": 3224,
      "85": 3225,
      "Lu": 3226,
      "nat": 3227,
      "pred": 3228,
      "debut": 3229,
      "social": 3230,
      "dle": 3231,
      "sion": 3232,
      "mor": 3233,
      "ilities": 3234,
      "section": 3235,
      "fem": 3236,
      "employees": 3237,
      "imple": 3238,
      "House": 3239,
      "countries": 3240,
      "Ab": 3241,
      "stage": 3242,
      "duction": 3243,
      "contrib": 3244,
      "sec": 3245,
      "opened": 3246,
      "Wil": 3247,
      "offerings": 3248,
      "Dep": 3249,
      "Rich": 3250,
      "aly": 3251,
      "trade": 3252,
      "young": 3253,
      "pho": 3254,
      "David": 3255,
      "beginning": 3256,
      "instead": 3257,
      "deliver": 3258,
      "fill": 3259,
      "coll": 3260,
      "miles": 3261,
      "Royal": 3262,
      "pon": 3263,
      "decision": 3264,
      "white": 3265,
      "fight": 3266,
      "ensed": 3267,
      "wee": 3268,
      "bed": 3269,
      "Mal": 3270,
      "itor": 3271,
      "route": 3272,
      "decided": 3273,
      "women": 3274,
      "Wash": 3275,
      "feet": 3276,
      "OR": 3277,
      "prevent": 3278,
      "likely": 3279,
      "forts": 3280,
      "playing": 3281,
      "aves": 3282,
      "Direct": 3283,
      "uncertain": 3284,
      "affected": 3285,
      "peak": 3286,
      "Michael": 3287,
      "aving": 3288,
      "eventually": 3289,
      "conf": 3290,
      "aval": 3291,
      "ping": 3292,
      "89": 3293,
      "once": 3294,
      "ston": 3295,
      "mented": 3296,
      "odes": 3297,
      "estimates": 3298,
      "ffer": 3299,
      "hardware": 3300,
      "pair": 3301,
      "proble": 3302,
      "Indian": 3303,
      "plann": 3304,
      "ples": 3305,
      "van": 3306,
      "pecial": 3307,
      "far": 3308,
      "Cr": 3309,
      "month": 3310,
      "particularly": 3311,
      "region": 3312,
      "counter": 3313,
      "dependent": 3314,
      "Ru": 3315,
      "existing": 3316,
      "don": 3317,
      "personal": 3318,
      "incipal": 3319,
      "Commission": 3320,
      "Fir": 3321,
      "Mic": 3322,
      "Music": 3323,
      "tempor": 3324,
      "units": 3325,
      "jurisd": 3326,
      "Consolidated": 3327,
      "population": 3328,
      "ald": 3329,
      "born": 3330,
      "Don": 3331,
      "know": 3332,
      "office": 3333,
      "ready": 3334,
      "Russ": 3335,
      "lled": 3336,
      "79": 3337,
      "substant": 3338,
      "pose": 3339,
      "China": 3340,
      "chall": 3341,
      "reput": 3342,
      "brought": 3343,
      "41": 3344,
      "outstanding": 3345,
      "ollar": 3346,
      "Chief": 3347,
      "Red": 3348,
      "table": 3349,
      "outside": 3350,
      "live": 3351,
      "Hist": 3352,
      "plans": 3353,
      "erous": 3354,
      "assist": 3355,
      "forced": 3356,
      "igned": 3357,
      "76": 3358,
      "Cent": 3359,
      "ission": 3360,
      "below": 3361,
      "ampionship": 3362,
      "Met": 3363,
      "super": 3364,
      "brother": 3365,
      "positions": 3366,
      "expl": 3367,
      "rather": 3368,
      "Distr": 3369,
      "acquired": 3370,
      "coast": 3371,
      "Corpor": 3372,
      "Sup": 3373,
      "Sch": 3374,
      "quest": 3375,
      "Mor": 3376,
      "inj": 3377,
      "issues": 3378,
      "attempt": 3379,
      "Washington": 3380,
      "worked": 3381,
      "Oracle": 3382,
      "behind": 3383,
      "Cur": 3384,
      "From": 3385,
      "Je": 3386,
      "regarding": 3387,
      "ino": 3388,
      "hon": 3389,
      "moun": 3390,
      "joined": 3391,
      "ems": 3392,
      "aces": 3393,
      "center": 3394,
      "regulatory": 3395,
      "59": 3396,
      "here": 3397,
      "involved": 3398,
      "unable": 3399,
      "technologies": 3400,
      "rank": 3401,
      "segment": 3402,
      "weeks": 3403,
      "argu": 3404,
      "leng": 3405,
      "mother": 3406,
      "Do": 3407,
      "ological": 3408,
      "School": 3409,
      "least": 3410,
      "ires": 3411,
      "awards": 3412,
      "arrange": 3413,
      "ublic": 3414,
      "tradition": 3415,
      "investment": 3416,
      "aut": 3417,
      "presented": 3418,
      "iety": 3419,
      "ption": 3420,
      "gar": 3421,
      "heavy": 3422,
      "angu": 3423,
      "allowed": 3424,
      "dig": 3425,
      "chart": 3426,
      "France": 3427,
      "era": 3428,
      "reve": 3429,
      "marketable": 3430,
      "expand": 3431,
      "parts": 3432,
      "quick": 3433,
      "effects": 3434,
      "previously": 3435,
      "adjust": 3436,
      "fif": 3437,
      "vill": 3438,
      "invent": 3439,
      "pie": 3440,
      "International": 3441,
      "passed": 3442,
      "cret": 3443,
      "realized": 3444,
      "tex": 3445,
      "must": 3446,
      "Bel": 3447,
      "Ale": 3448,
      "EN": 3449,
      "ana": 3450,
      "surv": 3451,
      "Equ": 3452,
      "novel": 3453,
      "originally": 3454,
      "ager": 3455,
      "flows": 3456,
      "box": 3457,
      "claimed": 3458,
      "pointed": 3459,
      "itar": 3460,
      "ctor": 3461,
      "express": 3462,
      "lier": 3463,
      "course": 3464,
      "Henry": 3465,
      "ograph": 3466,
      "emer": 3467,
      "anch": 3468,
      "follows": 3469,
      "hom": 3470,
      "isl": 3471,
      ").": 3472,
      "Vir": 3473,
      "ify": 3474,
      "training": 3475,
      "angible": 3476,
      "competition": 3477,
      "internal": 3478,
      "itors": 3479,
      "rent": 3480,
      "entered": 3481,
      "Fore": 3482,
      "uel": 3483,
      "pers": 3484,
      "weak": 3485,
      "lear": 3486,
      "soon": 3487,
      "efforts": 3488,
      "Operating": 3489,
      "Mer": 3490,
      "almost": 3491,
      "spir": 3492,
      "quar": 3493,
      "goal": 3494,
      "Cer": 3495,
      "location": 3496,
      "drop": 3497,
      "bit": 3498,
      "Wal": 3499,
      "network": 3500,
      "rics": 3501,
      "mun": 3502,
      "global": 3503,
      "bound": 3504,
      "recent": 3505,
      "anti": 3506,
      "SE": 3507,
      "mass": 3508,
      "2003": 3509,
      "settle": 3510,
      "object": 3511,
      "Hol": 3512,
      "88": 3513,
      "alleg": 3514,
      "federal": 3515,
      "42": 3516,
      "qual": 3517,
      "Ben": 3518,
      "ource": 3519,
      "2000": 3520,
      "featured": 3521,
      "vocal": 3522,
      "guns": 3523,
      "largest": 3524,
      "incorpor": 3525,
      "Union": 3526,
      "tic": 3527,
      "dou": 3528,
      "scored": 3529,
      "Mil": 3530,
      "hed": 3531,
      "disclo": 3532,
      "sat": 3533,
      "mean": 3534,
      "Best": 3535,
      "user": 3536,
      "wanted": 3537,
      "Securities": 3538,
      "nomin": 3539,
      "phys": 3540,
      "obtain": 3541,
      "cycl": 3542,
      "going": 3543,
      "ayed": 3544,
      "target": 3545,
      "Que": 3546,
      "eval": 3547,
      "Bro": 3548,
      "perform": 3549,
      "finished": 3550,
      "towards": 3551,
      "aled": 3552,
      "type": 3553,
      "ON": 3554,
      "First": 3555,
      "Mac": 3556,
      "ri": 3557,
      "weight": 3558,
      "harm": 3559,
      "fig": 3560,
      "health": 3561,
      "Two": 3562,
      "43": 3563,
      "scene": 3564,
      "suffer": 3565,
      "Exchange": 3566,
      "acquisition": 3567,
      "rail": 3568,
      "nd": 3569,
      "advertising": 3570,
      "hol": 3571,
      "scal": 3572,
      "Play": 3573,
      "reek": 3574,
      "improve": 3575,
      "):": 3576,
      "anced": 3577,
      "Mid": 3578,
      "Robert": 3579,
      "La": 3580,
      "assess": 3581,
      "vict": 3582,
      "critics": 3583,
      "Despite": 3584,
      "cup": 3585,
      "studio": 3586,
      "measure": 3587,
      "issue": 3588,
      "Follow": 3589,
      "Str": 3590,
      "wife": 3591,
      "56": 3592,
      "partners": 3593,
      "Battle": 3594,
      "connect": 3595,
      "aging": 3596,
      "Li": 3597,
      "defe": 3598,
      "load": 3599,
      "prob": 3600,
      "signed": 3601,
      "Dan": 3602,
      "2002": 3603,
      "efore": 3604,
      "stop": 3605,
      "District": 3606,
      "scre": 3607,
      "99": 3608,
      "asy": 3609,
      "troops": 3610,
      "Sing": 3611,
      "taking": 3612,
      "Officer": 3613,
      "wise": 3614,
      "ades": 3615,
      "runs": 3616,
      "army": 3617,
      "dated": 3618,
      "Following": 3619,
      "TV": 3620,
      "states": 3621,
      "keep": 3622,
      "hours": 3623,
      "imum": 3624,
      "emy": 3625,
      "intended": 3626,
      "azine": 3627,
      "limit": 3628,
      "prise": 3629,
      "frequ": 3630,
      "necess": 3631,
      "Paul": 3632,
      "Accoun": 3633,
      "58": 3634,
      "specific": 3635,
      "Ham": 3636,
      "western": 3637,
      "length": 3638,
      "believed": 3639,
      "explo": 3640,
      "media": 3641,
      "soft": 3642,
      "driven": 3643,
      "Pre": 3644,
      "sea": 3645,
      "immedi": 3646,
      "Cup": 3647,
      "Port": 3648,
      "quadron": 3649,
      "markets": 3650,
      "controls": 3651,
      "Sun": 3652,
      "ico": 3653,
      "earlier": 3654,
      "educ": 3655,
      "applications": 3656,
      "ius": 3657,
      "AC": 3658,
      "structure": 3659,
      "onse": 3660,
      "ables": 3661,
      "better": 3662,
      "Game": 3663,
      "benefits": 3664,
      "2020": 3665,
      "balance": 3666,
      "Board": 3667,
      "equivalents": 3668,
      "vehicles": 3669,
      "victory": 3670,
      "cases": 3671,
      "replaced": 3672,
      "initially": 3673,
      "space": 3674,
      "reme": 3675,
      "retain": 3676,
      "director": 3677,
      "highest": 3678,
      "Award": 3679,
      "ering": 3680,
      "opening": 3681,
      "island": 3682,
      "Cloud": 3683,
      "bot": 3684,
      "reng": 3685,
      "ills": 3686,
      "create": 3687,
      "Pac": 3688,
      "appearance": 3689,
      "fol": 3690,
      "encies": 3691,
      "agg": 3692,
      "speed": 3693,
      "Scott": 3694,
      "deal": 3695,
      "turned": 3696,
      "agreements": 3697,
      "refer": 3698,
      "Angel": 3699,
      "Charles": 3700,
      "southern": 3701,
      "Route": 3702,
      "web": 3703,
      "emp": 3704,
      "response": 3705,
      "Great": 3706,
      "users": 3707,
      "resulting": 3708,
      "ension": 3709,
      "currently": 3710,
      "gments": 3711,
      "hous": 3712,
      "gins": 3713,
      "2001": 3714,
      "aps": 3715,
      "overall": 3716,
      "establish": 3717,
      "enes": 3718,
      "ift": 3719,
      "president": 3720,
      "minutes": 3721,
      "Over": 3722,
      "accounting": 3723,
      ",”": 3724,
      "India": 3725,
      "ordered": 3726,
      "(“": 3727,
      "Star": 3728,
      "investig": 3729,
      "rating": 3730,
      "Kingdom": 3731,
      "annual": 3732,
      "fully": 3733,
      "langu": 3734,
      "dem": 3735,
      "uting": 3736,
      "Ter": 3737,
      "Income": 3738,
      "68": 3739,
      "park": 3740,
      "ishing": 3741,
      "Addition": 3742,
      "Smith": 3743,
      "Roman": 3744,
      "size": 3745,
      "asked": 3746,
      "multiple": 3747,
      "streng": 3748,
      "critical": 3749,
      "introduced": 3750,
      "writer": 3751,
      "variety": 3752,
      "ique": 3753,
      "Sol": 3754,
      "Canada": 3755,
      "idents": 3756,
      "quarters": 3757,
      "usion": 3758,
      "majority": 3759,
      "prison": 3760,
      "001": 3761,
      "Lou": 3762,
      "capac": 3763,
      "Del": 3764,
      "reputation": 3765,
      "relationship": 3766,
      "istic": 3767,
      "White": 3768,
      "accounts": 3769,
      "Mary": 3770,
      "Cam": 3771,
      "saying": 3772,
      "highway": 3773,
      "detail": 3774,
      "Virgin": 3775,
      "Associ": 3776,
      "Sam": 3777,
      "Ris": 3778,
      "uations": 3779,
      "Du": 3780,
      "ze": 3781,
      "liability": 3782,
      "pain": 3783,
      "Level": 3784,
      "practices": 3785,
      "Bu": 3786,
      "activity": 3787,
      "Common": 3788,
      "thus": 3789,
      "leases": 3790,
      "depart": 3791,
      "materially": 3792,
      "ta": 3793,
      "mitted": 3794,
      "Navy": 3795,
      "central": 3796,
      "according": 3797,
      "groups": 3798,
      "natural": 3799,
      "money": 3800,
      "Church": 3801,
      "collect": 3802,
      "Gl": 3803,
      "docu": 3804,
      "attacks": 3805,
      "treat": 3806,
      "civil": 3807,
      "mir": 3808,
      "clim": 3809,
      "church": 3810,
      "III": 3811,
      "Mart": 3812,
      "quare": 3813,
      "ume": 3814,
      "reviews": 3815,
      "hensive": 3816,
      "protection": 3817,
      "hurricane": 3818,
      "operation": 3819,
      "Atl": 3820,
      "ER": 3821,
      "Cost": 3822,
      "ership": 3823,
      "itect": 3824,
      "enough": 3825,
      "But": 3826,
      "Bay": 3827,
      "Broad": 3828,
      "Bus": 3829,
      "pet": 3830,
      "platform": 3831,
      "Hall": 3832,
      "istrant": 3833,
      "Peter": 3834,
      "bomb": 3835,
      "bow": 3836,
      "ov": 3837,
      "proposed": 3838,
      "cluded": 3839,
      "Commit": 3840,
      "Thomas": 3841,
      "facilities": 3842,
      "Alex": 3843,
      "edition": 3844,
      "IS": 3845,
      "Leg": 3846,
      "sures": 3847,
      "northern": 3848,
      "Pal": 3849,
      "senior": 3850,
      "67": 3851,
      "earch": 3852,
      "love": 3853,
      "pression": 3854,
      "daugh": 3855,
      "ville": 3856,
      "cul": 3857,
      "margin": 3858,
      "impair": 3859,
      "prom": 3860,
      "theast": 3861,
      "ises": 3862,
      "deploy": 3863,
      "praised": 3864,
      "gross": 3865,
      "nature": 3866,
      "52": 3867,
      "legisl": 3868,
      "ider": 3869,
      "longer": 3870,
      "fix": 3871,
      "Plan": 3872,
      "altern": 3873,
      "nes": 3874,
      "wat": 3875,
      "told": 3876,
      "VID": 3877,
      "resources": 3878,
      "relig": 3879,
      "Bur": 3880,
      "usually": 3881,
      "gains": 3882,
      "highly": 3883,
      "Fair": 3884,
      "mur": 3885,
      "Pacific": 3886,
      "Tex": 3887,
      "films": 3888,
      "agon": 3889,
      "financing": 3890,
      "positive": 3891,
      "Rock": 3892,
      "seek": 3893,
      "elements": 3894,
      "might": 3895,
      "portun": 3896,
      "Sub": 3897,
      "fantry": 3898,
      "earned": 3899,
      "itself": 3900,
      "staff": 3901,
      "57": 3902,
      "sil": 3903,
      "league": 3904,
      "sett": 3905,
      "nal": 3906,
      "paper": 3907,
      "resol": 3908,
      "Lit": 3909,
      "appointed": 3910,
      "communic": 3911,
      "Richard": 3912,
      "Cong": 3913,
      "avo": 3914,
      "whose": 3915,
      "businesses": 3916,
      "reduced": 3917,
      "jurisdictions": 3918,
      "evidence": 3919,
      "employee": 3920,
      "commission": 3921,
      "block": 3922,
      "give": 3923,
      "stone": 3924,
      "looking": 3925,
      "ilot": 3926,
      "bey": 3927,
      "acceler": 3928,
      "strateg": 3929,
      "incur": 3930,
      "already": 3931,
      "ids": 3932,
      "directed": 3933,
      "UK": 3934,
      "exam": 3935,
      "Chin": 3936,
      "Under": 3937,
      "Share": 3938,
      "audi": 3939,
      "unit": 3940,
      "quickly": 3941,
      "Awards": 3942,
      "Ke": 3943,
      "ultim": 3944,
      "ometimes": 3945,
      "especial": 3946,
      "Sal": 3947,
      "changed": 3948,
      "join": 3949,
      "larger": 3950,
      "despite": 3951,
      "Force": 3952,
      "especially": 3953,
      "overnor": 3954,
      "purchased": 3955,
      "conver": 3956,
      "Germany": 3957,
      "quality": 3958,
      "hab": 3959,
      "actors": 3960,
      "greater": 3961,
      "challeng": 3962,
      "construct": 3963,
      "64": 3964,
      "levels": 3965,
      "whom": 3966,
      "temporary": 3967,
      "personnel": 3968,
      "ously": 3969,
      "spent": 3970,
      "components": 3971,
      "Stud": 3972,
      "sale": 3973,
      "Island": 3974,
      "failed": 3975,
      "exper": 3976,
      "private": 3977,
      "manufacturing": 3978,
      "SU": 3979,
      "urance": 3980,
      "icket": 3981,
      "iate": 3982,
      "officers": 3983,
      "God": 3984,
      "sumed": 3985,
      "ronic": 3986,
      "prices": 3987,
      "teams": 3988,
      "bour": 3989,
      "extended": 3990,
      "feel": 3991,
      "Many": 3992,
      "agreed": 3993,
      "Market": 3994,
      "selling": 3995,
      "capacity": 3996,
      "yl": 3997,
      "Mr": 3998,
      "fluct": 3999,
      "football": 4000,
      "ows": 4001,
      "uk": 4002,
      "Sim": 4003,
      "opportun": 4004,
      "ION": 4005,
      "icon": 4006,
      "happ": 4007,
      "pret": 4008,
      "ogle": 4009,
      "directly": 4010,
      "Christian": 4011,
      "Micro": 4012,
      "radio": 4013,
      "purchases": 4014,
      "slow": 4015,
      "enh": 4016,
      "prin": 4017,
      "interview": 4018,
      "College": 4019,
      "inct": 4020,
      "ening": 4021,
      "lay": 4022,
      "recording": 4023,
      "divid": 4024,
      "mach": 4025,
      "policies": 4026,
      "Moun": 4027,
      "jour": 4028,
      "source": 4029,
      "word": 4030,
      "winds": 4031,
      "ara": 4032,
      "alys": 4033,
      "text": 4034,
      "reser": 4035,
      "Grand": 4036,
      "61": 4037,
      "function": 4038,
      "Tom": 4039,
      "Sk": 4040,
      "trial": 4041,
      "shows": 4042,
      "Sou": 4043,
      "Mag": 4044,
      "TS": 4045,
      "Vict": 4046,
      "community": 4047,
      "intangible": 4048,
      "62": 4049,
      "reflect": 4050,
      "alion": 4051,
      "defeated": 4052,
      "Mat": 4053,
      "listed": 4054,
      "uate": 4055,
      "abs": 4056,
      "Sov": 4057,
      "Google": 4058,
      "orts": 4059,
      "defend": 4060,
      "carried": 4061,
      "continu": 4062,
      "administrative": 4063,
      "ida": 4064,
      "inventory": 4065,
      "roll": 4066,
      "models": 4067,
      "NY": 4068,
      "bell": 4069,
      "request": 4070,
      "Services": 4071,
      "Soviet": 4072,
      "nu": 4073,
      "occup": 4074,
      "That": 4075,
      "rapid": 4076,
      "Times": 4077,
      "Brown": 4078,
      "technical": 4079,
      "300": 4080,
      "professional": 4081,
      "suit": 4082,
      "paren": 4083,
      "irl": 4084,
      "Corporation": 4085,
      "reduce": 4086,
      "plant": 4087,
      "Mex": 4088,
      "onto": 4089,
      "Span": 4090,
      "bird": 4091,
      "sey": 4092,
      "selves": 4093,
      "iation": 4094,
      "Agree": 4095,
      "53": 4096,
      "Gold": 4097,
      "poor": 4098,
      "instruments": 4099,
      "amort": 4100,
      "Im": 4101,
      "Super": 4102,
      "onom": 4103,
      "Tax": 4104,
      "pts": 4105,
      "Just": 4106,
      "gold": 4107,
      "aware": 4108,
      "Most": 4109,
      "photo": 4110,
      "marketing": 4111,
      "via": 4112,
      "51": 4113,
      "tur": 4114,
      "fleet": 4115,
      "Equity": 4116,
      "Pat": 4117,
      "mob": 4118,
      "Revenue": 4119,
      "food": 4120,
      "Sales": 4121,
      "Texas": 4122,
      "big": 4123,
      "resulted": 4124,
      "Enter": 4125,
      "penal": 4126,
      "sometimes": 4127,
      "Chinese": 4128,
      "observ": 4129,
      "digital": 4130,
      "spr": 4131,
      "matters": 4132,
      "Frank": 4133,
      "log": 4134,
      "election": 4135,
      "Western": 4136,
      "coach": 4137,
      "Ken": 4138,
      "Association": 4139,
      "adap": 4140,
      "188": 4141,
      "architect": 4142,
      "ken": 4143,
      "Second": 4144,
      "sumer": 4145,
      "sal": 4146,
      "score": 4147,
      "More": 4148,
      "brief": 4149,
      "got": 4150,
      "yn": 4151,
      "bring": 4152,
      "Chris": 4153,
      "poses": 4154,
      "Trans": 4155,
      "NA": 4156,
      "orders": 4157,
      "assum": 4158,
      "”)": 4159,
      "Hill": 4160,
      "Er": 4161,
      "hibit": 4162,
      "lived": 4163,
      "ga": 4164,
      "umb": 4165,
      "1999": 4166,
      "Microsoft": 4167,
      "disrup": 4168,
      "Long": 4169,
      "sched": 4170,
      "ivity": 4171,
      "Jer": 4172,
      "attrib": 4173,
      "igan": 4174,
      "suffic": 4175,
      "minor": 4176,
      "Early": 4177,
      "compliance": 4178,
      "wa": 4179,
      "arrived": 4180,
      "bol": 4181,
      "brand": 4182,
      "tons": 4183,
      "scr": 4184,
      "bill": 4185,
      "otherwise": 4186,
      "Britain": 4187,
      "ED": 4188,
      "pressure": 4189,
      "Virginia": 4190,
      "iest": 4191,
      "uter": 4192,
      "distr": 4193,
      "artment": 4194,
      "offset": 4195,
      "ked": 4196,
      "Day": 4197,
      "54": 4198,
      "Center": 4199,
      "becoming": 4200,
      "hood": 4201,
      "connection": 4202,
      "berg": 4203,
      "scale": 4204,
      "liament": 4205,
      "Hot": 4206,
      "musical": 4207,
      "cert": 4208,
      "devices": 4209,
      "2016": 4210,
      "relative": 4211,
      "study": 4212,
      "Annual": 4213,
      "sch": 4214,
      "otive": 4215,
      "standard": 4216,
      "worth": 4217,
      "Record": 4218,
      "useum": 4219,
      "carrying": 4220,
      "authorities": 4221,
      "warr": 4222,
      "idea": 4223,
      "mas": 4224,
      "bs": 4225,
      "install": 4226,
      "Agreement": 4227,
      "ios": 4228,
      "female": 4229,
      "ona": 4230,
      "yet": 4231,
      "numerous": 4232,
      "failure": 4233,
      "ART": 4234,
      "ena": 4235,
      "flo": 4236,
      "transport": 4237,
      "surface": 4238,
      "planned": 4239,
      "dollar": 4240,
      "accept": 4241,
      "izing": 4242,
      "initial": 4243,
      "surround": 4244,
      "liter": 4245,
      "magazine": 4246,
      "Lord": 4247,
      "influence": 4248,
      "Cal": 4249,
      "bi": 4250,
      "llect": 4251,
      "yr": 4252,
      "Fl": 4253,
      "spo": 4254,
      "omer": 4255,
      "goals": 4256,
      "flood": 4257,
      "acing": 4258,
      "Fle": 4259,
      "smaller": 4260,
      "Victor": 4261,
      "yard": 4262,
      "married": 4263,
      "daughter": 4264,
      "operate": 4265,
      "offered": 4266,
      "subsequently": 4267,
      "principal": 4268,
      "burg": 4269,
      "supported": 4270,
      "fit": 4271,
      "summer": 4272,
      "ibr": 4273,
      "Chic": 4274,
      "eastern": 4275,
      "storage": 4276,
      "travel": 4277,
      "students": 4278,
      "icing": 4279,
      "division": 4280,
      "solutions": 4281,
      "granted": 4282,
      "Later": 4283,
      "annel": 4284,
      "winning": 4285,
      "Law": 4286,
      "aired": 4287,
      "pow": 4288,
      "awarded": 4289,
      "Spanish": 4290,
      "sa": 4291,
      "Jackson": 4292,
      "alysis": 4293,
      "guitar": 4294,
      "Execut": 4295,
      "benefit": 4296,
      "progress": 4297,
      "episodes": 4298,
      "scenes": 4299,
      "Tour": 4300,
      "strate": 4301,
      "Flor": 4302,
      "woman": 4303,
      "ny": 4304,
      "wal": 4305,
      "transfer": 4306,
      "Championship": 4307,
      "iction": 4308,
      "shap": 4309,
      "leader": 4310,
      "determined": 4311,
      "Ir": 4312,
      "secut": 4313,
      "declared": 4314,
      "tracks": 4315,
      "running": 4316,
      "anticip": 4317,
      "officer": 4318,
      "izes": 4319,
      "Mill": 4320,
      "vin": 4321,
      "occurred": 4322,
      "Chicago": 4323,
      "leaving": 4324,
      "confl": 4325,
      "corporate": 4326,
      "iage": 4327,
      "suggested": 4328,
      "ula": 4329,
      "primary": 4330,
      "acquisitions": 4331,
      "burn": 4332,
      "payment": 4333,
      "stitution": 4334,
      "Louis": 4335,
      "ander": 4336,
      "mocr": 4337,
      "deep": 4338,
      "63": 4339,
      "idi": 4340,
      "movement": 4341,
      "finance": 4342,
      "Spe": 4343,
      "latter": 4344,
      "1998": 4345,
      "Rel": 4346,
      "iated": 4347,
      "police": 4348,
      "Club": 4349,
      "transactions": 4350,
      "rated": 4351,
      "ordin": 4352,
      "Hu": 4353,
      "Edward": 4354,
      "immediately": 4355,
      "Kore": 4356,
      "things": 4357,
      "charge": 4358,
      "produce": 4359,
      "llectual": 4360,
      "territ": 4361,
      "Wind": 4362,
      "zer": 4363,
      "mov": 4364,
      "deriv": 4365,
      "problems": 4366,
      "rid": 4367,
      "Ver": 4368,
      "moving": 4369,
      "sess": 4370,
      "substantial": 4371,
      "hop": 4372,
      "lie": 4373,
      "pan": 4374,
      "phy": 4375,
      "sons": 4376,
      "decrease": 4377,
      "autom": 4378,
      "Ze": 4379,
      "kil": 4380,
      "Ital": 4381,
      "jun": 4382,
      "language": 4383,
      "done": 4384,
      "values": 4385,
      "Executive": 4386,
      "feature": 4387,
      "attention": 4388,
      "mixed": 4389,
      "remains": 4390,
      "Cro": 4391,
      "Americ": 4392,
      "satis": 4393,
      "competitive": 4394,
      "attract": 4395,
      "largely": 4396,
      "elected": 4397,
      "actual": 4398,
      "stream": 4399,
      "72": 4400,
      "98": 4401,
      "receiv": 4402,
      "occas": 4403,
      "earnings": 4404,
      "nearly": 4405,
      "agreement": 4406,
      "Green": 4407,
      "Hor": 4408,
      "successfully": 4409,
      "Current": 4410,
      "Since": 4411,
      "sust": 4412,
      "revol": 4413,
      "achieve": 4414,
      "touch": 4415,
      "royal": 4416,
      "chief": 4417,
      "mod": 4418,
      "necessary": 4419,
      "ept": 4420,
      "bon": 4421,
      "orial": 4422,
      "captured": 4423,
      "Cast": 4424,
      "destroyed": 4425,
      "helped": 4426,
      "Cred": 4427,
      "Further": 4428,
      "river": 4429,
      "significantly": 4430,
      "motion": 4431,
      "status": 4432,
      "reports": 4433,
      "iser": 4434,
      "mostly": 4435,
      "IV": 4436,
      "lymp": 4437,
      "compre": 4438,
      "Los": 4439,
      "living": 4440,
      "advance": 4441,
      "dismiss": 4442,
      "Party": 4443,
      "accepted": 4444,
      "Due": 4445,
      "Olymp": 4446,
      "Bas": 4447,
      "subscrip": 4448,
      "Section": 4449,
      "replace": 4450,
      "programs": 4451,
      "Back": 4452,
      "ST": 4453,
      "bad": 4454,
      "always": 4455,
      "themselves": 4456,
      "rey": 4457,
      "Tor": 4458,
      "affic": 4459,
      "dead": 4460,
      "wing": 4461,
      "max": 4462,
      "pilot": 4463,
      "whole": 4464,
      "buildings": 4465,
      "Love": 4466,
      "Quarter": 4467,
      "closed": 4468,
      "Congress": 4469,
      "da": 4470,
      "Sever": 4471,
      "owned": 4472,
      "afety": 4473,
      "cape": 4474,
      "Song": 4475,
      "standards": 4476,
      "dark": 4477,
      "aker": 4478,
      "temper": 4479,
      "stars": 4480,
      "umber": 4481,
      "receive": 4482,
      "PC": 4483,
      "vey": 4484,
      "Art": 4485,
      "sis": 4486,
      "Africa": 4487,
      "breed": 4488,
      "Out": 4489,
      "bir": 4490,
      "ding": 4491,
      "ception": 4492,
      "voice": 4493,
      "funds": 4494,
      "leave": 4495,
      "NVID": 4496,
      "NVIDIA": 4497,
      "defeat": 4498,
      "matter": 4499,
      "Crit": 4500,
      "Sci": 4501,
      "igade": 4502,
      "account": 4503,
      "Ty": 4504,
      "historical": 4505,
      "mentary": 4506,
      "aggreg": 4507,
      "rich": 4508,
      "referred": 4509,
      "1997": 4510,
      "intellectual": 4511,
      "compar": 4512,
      "authorized": 4513,
      "meeting": 4514,
      "intens": 4515,
      "typically": 4516,
      "anks": 4517,
      "Council": 4518,
      "dut": 4519,
      "aj": 4520,
      "manager": 4521,
      "vari": 4522,
      "chester": 4523,
      "bin": 4524,
      "heav": 4525,
      "responsible": 4526,
      "discovered": 4527,
      "How": 4528,
      "Bet": 4529,
      "meaning": 4530,
      "fish": 4531,
      "accompany": 4532,
      "PART": 4533,
      "marked": 4534,
      "reference": 4535,
      "cedures": 4536,
      "CON": 4537,
      "Govern": 4538,
      "Hal": 4539,
      "arrangements": 4540,
      "dete": 4541,
      "appears": 4542,
      "Sum": 4543,
      "else": 4544,
      "Foreign": 4545,
      "restricted": 4546,
      "sources": 4547,
      "measures": 4548,
      "lyrics": 4549,
      "Canadian": 4550,
      "probably": 4551,
      "Fort": 4552,
      "MS": 4553,
      "suppliers": 4554,
      "andon": 4555,
      "Billboard": 4556,
      "litigation": 4557,
      "bank": 4558,
      "fifth": 4559,
      "250": 4560,
      "74": 4561,
      "ptions": 4562,
      "spired": 4563,
      "aily": 4564,
      "Franc": 4565,
      "adopted": 4566,
      "negatively": 4567,
      "Lat": 4568,
      "ror": 4569,
      "job": 4570,
      "shire": 4571,
      "really": 4572,
      "damaged": 4573,
      "History": 4574,
      "Ox": 4575,
      "cat": 4576,
      "lives": 4577,
      "ips": 4578,
      "screen": 4579,
      "imm": 4580,
      "boy": 4581,
      "Johnson": 4582,
      "evolution": 4583,
      "OF": 4584,
      "fell": 4585,
      "Florida": 4586,
      "pursuant": 4587,
      "suffered": 4588,
      "hot": 4589,
      "180": 4590,
      "Research": 4591,
      "write": 4592,
      "fast": 4593,
      "confir": 4594,
      "shoot": 4595,
      "prep": 4596,
      "Six": 4597,
      "uated": 4598,
      "executive": 4599,
      "Additionally": 4600,
      "bury": 4601,
      "categ": 4602,
      "95": 4603,
      "amed": 4604,
      "settlement": 4605,
      "pha": 4606,
      "thr": 4607,
      "spital": 4608,
      "restrictions": 4609,
      "policy": 4610,
      "Committee": 4611,
      "removed": 4612,
      "opin": 4613,
      "cm": 4614,
      "step": 4615,
      "Arch": 4616,
      "Both": 4617,
      "chan": 4618,
      "anges": 4619,
      "Any": 4620,
      "1995": 4621,
      "Interest": 4622,
      "tainment": 4623,
      "Service": 4624,
      "deferred": 4625,
      "address": 4626,
      "See": 4627,
      "plot": 4628,
      "Senior": 4629,
      "names": 4630,
      "segments": 4631,
      "sail": 4632,
      "broadcast": 4633,
      "mouth": 4634,
      "contains": 4635,
      "asser": 4636,
      "onna": 4637,
      "portr": 4638,
      "applicable": 4639,
      "Group": 4640,
      "electric": 4641,
      "dil": 4642,
      "designated": 4643,
      "needed": 4644,
      "ado": 4645,
      "Big": 4646,
      "quid": 4647,
      "numbers": 4648,
      "producer": 4649,
      "books": 4650,
      "comprehensive": 4651,
      "Lake": 4652,
      "Rh": 4653,
      "ault": 4654,
      "partially": 4655,
      "73": 4656,
      "lebr": 4657,
      "separate": 4658,
      "yards": 4659,
      "Station": 4660,
      "favorable": 4661,
      "words": 4662,
      "traditional": 4663,
      "cit": 4664,
      "fans": 4665,
      "ender": 4666,
      "Business": 4667,
      "gas": 4668,
      "celebr": 4669,
      "weap": 4670,
      "sole": 4671,
      "istered": 4672,
      "rules": 4673,
      "Atlantic": 4674,
      "assigned": 4675,
      "ads": 4676,
      "traffic": 4677,
      "fiction": 4678,
      "train": 4679,
      "plied": 4680,
      "Another": 4681,
      "platforms": 4682,
      "dates": 4683,
      "soldiers": 4684,
      "launched": 4685,
      "Bow": 4686,
      "makes": 4687,
      "twent": 4688,
      "aught": 4689,
      "gain": 4690,
      "continues": 4691,
      "tru": 4692,
      "demon": 4693,
      "defined": 4694,
      "colon": 4695,
      "raised": 4696,
      "experienced": 4697,
      "fixed": 4698,
      "Test": 4699,
      "ams": 4700,
      "online": 4701,
      "identified": 4702,
      "Queen": 4703,
      "village": 4704,
      "actor": 4705,
      "copies": 4706,
      "plays": 4707,
      "giving": 4708,
      "amb": 4709,
      "Data": 4710,
      "appropr": 4711,
      "Lin": 4712,
      "Tur": 4713,
      "shown": 4714,
      "Bor": 4715,
      "cance": 4716,
      "coup": 4717,
      "relating": 4718,
      "presents": 4719,
      "Sea": 4720,
      "provision": 4721,
      "Prince": 4722,
      "takes": 4723,
      "SEC": 4724,
      "71": 4725,
      "beat": 4726,
      "sym": 4727,
      "battles": 4728,
      "Rail": 4729,
      "Earth": 4730,
      "Good": 4731,
      "sufficient": 4732,
      "castle": 4733,
      "Jew": 4734,
      "Highway": 4735,
      "nation": 4736,
      "ari": 4737,
      "Pan": 4738,
      "aming": 4739,
      "Central": 4740,
      "accur": 4741,
      "composed": 4742,
      "Its": 4743,
      "Old": 4744,
      "scient": 4745,
      "rout": 4746,
      "ots": 4747,
      "Francis": 4748,
      "Tes": 4749,
      "flag": 4750,
      "phen": 4751,
      "cere": 4752,
      "slight": 4753,
      "collection": 4754,
      "ration": 4755,
      "cannot": 4756,
      "acted": 4757,
      "competitors": 4758,
      "accelerated": 4759,
      "controvers": 4760,
      "Gross": 4761,
      "Rad": 4762,
      "estimate": 4763,
      "records": 4764,
      "stitute": 4765,
      "flight": 4766,
      "llig": 4767,
      "cand": 4768,
      "graphy": 4769,
      "circum": 4770,
      "revealed": 4771,
      "FA": 4772,
      "subs": 4773,
      "intellig": 4774,
      "Emp": 4775,
      "something": 4776,
      "Mont": 4777,
      "IP": 4778,
      "inspired": 4779,
      "emed": 4780,
      "1996": 4781,
      "iring": 4782,
      "Apple": 4783,
      "domin": 4784,
      "Non": 4785,
      "CE": 4786,
      "Russian": 4787,
      "Fiscal": 4788,
      "consumer": 4789,
      "upper": 4790,
      "1st": 4791,
      "undred": 4792,
      "audited": 4793,
      "education": 4794,
      "venue": 4795,
      "Martin": 4796,
      "acc": 4797,
      "Ot": 4798,
      "Value": 4799,
      "Town": 4800,
      "scor": 4801,
      "ady": 4802,
      "acting": 4803,
      "Squadron": 4804,
      "minute": 4805,
      "Kent": 4806,
      "DV": 4807,
      "syn": 4808,
      "Accounting": 4809,
      "Tesla": 4810,
      "excess": 4811,
      "ults": 4812,
      "independent": 4813,
      "joy": 4814,
      "culture": 4815,
      "birth": 4816,
      "verse": 4817,
      "timing": 4818,
      "AF": 4819,
      "privacy": 4820,
      "din": 4821,
      "susp": 4822,
      "pool": 4823,
      "ranked": 4824,
      "serve": 4825,
      "instit": 4826,
      "TC": 4827,
      "19th": 4828,
      "pit": 4829,
      "rd": 4830,
      "check": 4831,
      "adium": 4832,
      "iffs": 4833,
      "subsequent": 4834,
      "ii": 4835,
      "attempted": 4836,
      "attacked": 4837,
      "develo": 4838,
      "cean": 4839,
      "ounds": 4840,
      "intend": 4841,
      "400": 4842,
      "Wood": 4843,
      "effic": 4844,
      "appeal": 4845,
      "percentage": 4846,
      "mention": 4847,
      "1950": 4848,
      "worldwide": 4849,
      "1934": 4850,
      "artic": 4851,
      "Asia": 4852,
      "profit": 4853,
      "consum": 4854,
      "constructed": 4855,
      "SS": 4856,
      "Miss": 4857,
      "labor": 4858,
      "mom": 4859,
      "Jose": 4860,
      "Jim": 4861,
      "spaper": 4862,
      ".,": 4863,
      "istics": 4864,
      "cyber": 4865,
      "Ev": 4866,
      "increases": 4867,
      "classified": 4868,
      "Balance": 4869,
      "Cle": 4870,
      "Sir": 4871,
      "Carol": 4872,
      "sho": 4873,
      "ansion": 4874,
      "proceedings": 4875,
      "lif": 4876,
      "think": 4877,
      "Risk": 4878,
      "want": 4879,
      "letter": 4880,
      "ker": 4881,
      "kind": 4882,
      "effort": 4883,
      "icated": 4884,
      "famil": 4885,
      "bio": 4886,
      "rect": 4887,
      "charges": 4888,
      "aland": 4889,
      "util": 4890,
      "consisted": 4891,
      "question": 4892,
      "selected": 4893,
      "OL": 4894,
      "estival": 4895,
      "houses": 4896,
      "habit": 4897,
      "ses": 4898,
      "render": 4899,
      "inno": 4900,
      "Final": 4901,
      "stockholders": 4902,
      "relationships": 4903,
      "singer": 4904,
      "strategic": 4905,
      "preci": 4906,
      "Italian": 4907,
      "incent": 4908,
      "metal": 4909,
      "organization": 4910,
      "Corps": 4911,
      "blood": 4912,
      "grand": 4913,
      "150": 4914,
      "batter": 4915,
      "combined": 4916,
      "accompanying": 4917,
      "correspond": 4918,
      "theat": 4919,
      "negative": 4920,
      "adjustments": 4921,
      "fluctuations": 4922,
      "Four": 4923,
      "ousand": 4924,
      "Department": 4925,
      "Penn": 4926,
      "ech": 4927,
      "concluded": 4928,
      "crow": 4929,
      "Develop": 4930,
      "fighting": 4931,
      "captain": 4932,
      "middle": 4933,
      "Office": 4934,
      "Fer": 4935,
      "constant": 4936,
      "ongo": 4937,
      "negot": 4938,
      "conducted": 4939,
      "friends": 4940,
      "utch": 4941,
      "recomm": 4942,
      "chap": 4943,
      "depression": 4944,
      "sus": 4945,
      "repe": 4946,
      "consists": 4947,
      "purposes": 4948,
      "commander": 4949,
      "physical": 4950,
      "serious": 4951,
      "relatively": 4952,
      "renew": 4953,
      "commented": 4954,
      "finally": 4955,
      "bat": 4956,
      "chain": 4957,
      "inher": 4958,
      "ellow": 4959,
      "transferred": 4960,
      "distinct": 4961,
      "represented": 4962,
      "reasonable": 4963,
      "vehicle": 4964,
      "Hel": 4965,
      "master": 4966,
      "Empire": 4967,
      "heart": 4968,
      "Team": 4969,
      "Because": 4970,
      "uled": 4971,
      "Republic": 4972,
      "Angeles": 4973,
      "tren": 4974,
      "ipp": 4975,
      "damages": 4976,
      "piece": 4977,
      "OT": 4978,
      "contain": 4979,
      "means": 4980,
      "provides": 4981,
      "Series": 4982,
      "hair": 4983,
      "abandon": 4984,
      "Northern": 4985,
      "contractual": 4986,
      "DVD": 4987,
      "adequ": 4988,
      "ifications": 4989,
      "iced": 4990,
      "count": 4991,
      "severe": 4992,
      "audience": 4993,
      "1994": 4994,
      "Ret": 4995,
      "items": 4996,
      "artist": 4997,
      "option": 4998,
      "secret": 4999,
      "generation": 5000,
      "Sar": 5001,
      "crimin": 5002,
      "elve": 5003,
      "sister": 5004,
      "refused": 5005,
      "double": 5006,
      "collabor": 5007,
      "Rule": 5008,
      "aspect": 5009,
      "becomes": 5010,
      "irection": 5011,
      "Several": 5012,
      "AL": 5013,
      "izations": 5014,
      "ifying": 5015,
      "core": 5016,
      "newspaper": 5017,
      "distribution": 5018,
      "Up": 5019,
      "yd": 5020,
      "Mass": 5021,
      "pricing": 5022,
      "transl": 5023,
      "vocals": 5024,
      "effectively": 5025,
      "Bob": 5026,
      "bul": 5027,
      "inch": 5028,
      "news": 5029,
      "Camp": 5030,
      "vation": 5031,
      "1992": 5032,
      "covery": 5033,
      "spl": 5034,
      "meant": 5035,
      "horse": 5036,
      "Like": 5037,
      "impairment": 5038,
      "mainly": 5039,
      "termine": 5040,
      "Acad": 5041,
      "determine": 5042,
      "Democr": 5043,
      "volume": 5044,
      "itation": 5045,
      "promin": 5046,
      "ighter": 5047,
      "Madonna": 5048,
      "ibly": 5049,
      "Wales": 5050,
      "watch": 5051,
      "Command": 5052,
      "borrow": 5053,
      "Mel": 5054,
      "stra": 5055,
      "farm": 5056,
      "ito": 5057,
      "abe": 5058,
      "orm": 5059,
      "border": 5060,
      "grade": 5061,
      "decreased": 5062,
      "erc": 5063,
      "stances": 5064,
      "Zealand": 5065,
      "Fam": 5066,
      "assumptions": 5067,
      "PR": 5068,
      "pack": 5069,
      "lling": 5070,
      "manage": 5071,
      "Change": 5072,
      "interpret": 5073,
      "providing": 5074,
      "doing": 5075,
      "Viet": 5076,
      "Care": 5077,
      "Che": 5078,
      "alone": 5079,
      "managed": 5080,
      "beyond": 5081,
      "Fox": 5082,
      "matches": 5083,
      "iveness": 5084,
      "arrow": 5085,
      "tried": 5086,
      "cam": 5087,
      "trading": 5088,
      "judgment": 5089,
      "concent": 5090,
      "Michigan": 5091,
      "drum": 5092,
      "hero": 5093,
      "vert": 5094,
      "practice": 5095,
      "secure": 5096,
      "Den": 5097,
      "advant": 5098,
      "Der": 5099,
      "murder": 5100,
      "rol": 5101,
      "centre": 5102,
      "passing": 5103,
      "pul": 5104,
      "Book": 5105,
      "Time": 5106,
      "expo": 5107,
      "asset": 5108,
      "incorporated": 5109,
      "Middle": 5110,
      "miral": 5111,
      "ustr": 5112,
      "strategy": 5113,
      "bt": 5114,
      "religious": 5115,
      "Film": 5116,
      "Credit": 5117,
      "sect": 5118,
      "Mexico": 5119,
      "movie": 5120,
      "Techn": 5121,
      "han": 5122,
      "male": 5123,
      "normal": 5124,
      "Mem": 5125,
      "geograph": 5126,
      "science": 5127,
      "district": 5128,
      "holding": 5129,
      "detect": 5130,
      "Dev": 5131,
      "trave": 5132,
      "wealth": 5133,
      "ultimately": 5134,
      "Scotland": 5135,
      "forest": 5136,
      "twenty": 5137,
      "extreme": 5138,
      "marriage": 5139,
      "alle": 5140,
      "expend": 5141,
      "thousand": 5142,
      "comed": 5143,
      "types": 5144,
      "ump": 5145,
      "ogue": 5146,
      "cumulated": 5147,
      "environment": 5148,
      "ada": 5149,
      "safety": 5150,
      "wit": 5151,
      "wick": 5152,
      "versions": 5153,
      "interests": 5154,
      "script": 5155,
      "estic": 5156,
      "Invest": 5157,
      "bled": 5158,
      "African": 5159,
      "maximum": 5160,
      "Exhibit": 5161,
      "ored": 5162,
      "theme": 5163,
      "antasy": 5164,
      "showed": 5165,
      "nearby": 5166,
      "raid": 5167,
      "performances": 5168,
      "combat": 5169,
      "candid": 5170,
      "transition": 5171,
      "ols": 5172,
      "fulfill": 5173,
      "specified": 5174,
      "growing": 5175,
      "20th": 5176,
      "computing": 5177,
      "ien": 5178,
      "involve": 5179,
      "Sil": 5180,
      "repurchase": 5181,
      "attempts": 5182,
      "allowing": 5183,
      "mechan": 5184,
      "generated": 5185,
      "writers": 5186,
      "ATION": 5187,
      "amortization": 5188,
      "entially": 5189,
      "neigh": 5190,
      "iqu": 5191,
      "impress": 5192,
      "conflict": 5193,
      "Public": 5194,
      "ij": 5195,
      "uten": 5196,
      "Sur": 5197,
      "Bridge": 5198,
      "Major": 5199,
      "Soci": 5200,
      "implement": 5201,
      "Cy": 5202,
      "mes": 5203,
      "umn": 5204,
      "1930": 5205,
      "rare": 5206,
      "prepar": 5207,
      "extent": 5208,
      "accord": 5209,
      "eth": 5210,
      "za": 5211,
      "pattern": 5212,
      "itures": 5213,
      "stating": 5214,
      "1993": 5215,
      "oth": 5216,
      "isto": 5217,
      "procedures": 5218,
      "rule": 5219,
      "ceremon": 5220,
      "08": 5221,
      "delivery": 5222,
      "warrant": 5223,
      "statement": 5224,
      "developing": 5225,
      "cry": 5226,
      "drew": 5227,
      "prem": 5228,
      "Tre": 5229,
      "kin": 5230,
      "VM": 5231,
      "quot": 5232,
      "contained": 5233,
      "locations": 5234,
      "System": 5235,
      "launch": 5236,
      "Stone": 5237,
      "Cross": 5238,
      "approved": 5239,
      "ya": 5240,
      "iders": 5241,
      "directors": 5242,
      "Cath": 5243,
      "icts": 5244,
      "Their": 5245,
      "ongoing": 5246,
      "Dou": 5247,
      "sought": 5248,
      "export": 5249,
      "valuation": 5250,
      "09": 5251,
      "Sha": 5252,
      "elimin": 5253,
      "divided": 5254,
      "PU": 5255,
      "hus": 5256,
      "rical": 5257,
      "Minister": 5258,
      "Post": 5259,
      "omen": 5260,
      "ulty": 5261,
      "ba": 5262,
      "propos": 5263,
      "recognition": 5264,
      "isation": 5265,
      "reland": 5266,
      "gent": 5267,
      "expansion": 5268,
      "strength": 5269,
      "creation": 5270,
      "vention": 5271,
      "website": 5272,
      "Simp": 5273,
      "possess": 5274,
      "path": 5275,
      "starting": 5276,
      "direction": 5277,
      "bud": 5278,
      "hundred": 5279,
      "lap": 5280,
      "assem": 5281,
      "needs": 5282,
      "Haw": 5283,
      "girl": 5284,
      "beha": 5285,
      "pick": 5286,
      "titled": 5287,
      "Each": 5288,
      "kept": 5289,
      "thick": 5290,
      "stay": 5291,
      "college": 5292,
      "mountain": 5293,
      "expressed": 5294,
      "Latin": 5295,
      "your": 5296,
      "Infantry": 5297,
      "attended": 5298,
      "requires": 5299,
      "succeed": 5300,
      "dropped": 5301,
      "ato": 5302,
      "focused": 5303,
      "2nd": 5304,
      "resist": 5305,
      "1991": 5306,
      "winter": 5307,
      "Hard": 5308,
      "ero": 5309,
      "Foot": 5310,
      "ffect": 5311,
      "presence": 5312,
      "alternative": 5313,
      "processes": 5314,
      "square": 5315,
      "thur": 5316,
      "therefore": 5317,
      "News": 5318,
      "illery": 5319,
      "emic": 5320,
      "Stan": 5321,
      "Broadcom": 5322,
      "Greek": 5323,
      "Wall": 5324,
      "deg": 5325,
      "liquid": 5326,
      "Tim": 5327,
      "vul": 5328,
      "recon": 5329,
      "multi": 5330,
      "delivered": 5331,
      "Gar": 5332,
      "arrest": 5333,
      "schools": 5334,
      "ka": 5335,
      "oil": 5336,
      "asion": 5337,
      "firm": 5338,
      "rat": 5339,
      "concept": 5340,
      "manner": 5341,
      "Jones": 5342,
      "Oh": 5343,
      "Person": 5344,
      "Rol": 5345,
      "600": 5346,
      "Jef": 5347,
      "ceived": 5348,
      "decline": 5349,
      "combination": 5350,
      "symbol": 5351,
      "Southern": 5352,
      "Life": 5353,
      "san": 5354,
      "schol": 5355,
      "incident": 5356,
      "rapidly": 5357,
      "ites": 5358,
      "ours": 5359,
      "Government": 5360,
      "Ireland": 5361,
      "assurance": 5362,
      "iverse": 5363,
      "Egy": 5364,
      "guest": 5365,
      "founded": 5366,
      "drawn": 5367,
      "spot": 5368,
      "advanced": 5369,
      "degree": 5370,
      "%,": 5371,
      "Creek": 5372,
      "ee": 5373,
      "compr": 5374,
      "slightly": 5375,
      "aran": 5376,
      "relief": 5377,
      "carry": 5378,
      "Upon": 5379,
      "begins": 5380,
      "Secret": 5381,
      "Operations": 5382,
      "mobile": 5383,
      "mess": 5384,
      "enforce": 5385,
      "Parliament": 5386,
      "Records": 5387,
      "lam": 5388,
      "nest": 5389,
      "ibe": 5390,
      "peror": 5391,
      "utenant": 5392,
      "faced": 5393,
      "inches": 5394,
      "rot": 5395,
      "Vol": 5396,
      "dance": 5397,
      "nown": 5398,
      "oso": 5399,
      "vend": 5400,
      "weather": 5401,
      "Alpha": 5402,
      "yer": 5403,
      "zz": 5404,
      "Short": 5405,
      "bly": 5406,
      "sides": 5407,
      "premi": 5408,
      "puts": 5409,
      "parents": 5410,
      "iant": 5411,
      "Williams": 5412,
      "psy": 5413,
      "cyclone": 5414,
      "actually": 5415,
      "iconduct": 5416,
      "seconds": 5417,
      "featuring": 5418,
      "investigations": 5419,
      "crued": 5420,
      "provisions": 5421,
      "Clark": 5422,
      "sites": 5423,
      "registrant": 5424,
      "widely": 5425,
      "peaked": 5426,
      "straight": 5427,
      "viewers": 5428,
      "Max": 5429,
      "hall": 5430,
      "mic": 5431,
      "condensed": 5432,
      "broke": 5433,
      "distance": 5434,
      "Arthur": 5435,
      "Directors": 5436,
      "derivative": 5437,
      "avoid": 5438,
      "concert": 5439,
      "vote": 5440,
      "pal": 5441,
      "modif": 5442,
      "Def": 5443,
      "Jul": 5444,
      "subsidi": 5445,
      "VMware": 5446,
      "Vo": 5447,
      "society": 5448,
      "Bond": 5449,
      "morning": 5450,
      "OC": 5451,
      "Product": 5452,
      "licenses": 5453,
      "Games": 5454,
      "Nine": 5455,
      "secured": 5456,
      "Oxford": 5457,
      "circumstances": 5458,
      "1944": 5459,
      "powerful": 5460,
      "UN": 5461,
      "ulf": 5462,
      "zon": 5463,
      "satisf": 5464,
      "Information": 5465,
      "commitments": 5466,
      "yan": 5467,
      "101": 5468,
      "ledge": 5469,
      "Development": 5470,
      "scoring": 5471,
      "isers": 5472,
      "Commercial": 5473,
      "defense": 5474,
      "Hung": 5475,
      "Land": 5476,
      "wound": 5477,
      "encour": 5478,
      "figure": 5479,
      "Sat": 5480,
      "________________": 5481,
      "Before": 5482,
      "ott": 5483,
      "Egypt": 5484,
      "image": 5485,
      "inside": 5486,
      "800": 5487,
      "ube": 5488,
      "thin": 5489,
      "fees": 5490,
      "chem": 5491,
      "Men": 5492,
      "Cond": 5493,
      "entr": 5494,
      "card": 5495,
      "sn": 5496,
      "perial": 5497,
      "regions": 5498,
      "Management": 5499,
      "icate": 5500,
      "earl": 5501,
      "Rev": 5502,
      "1942": 5503,
      "cities": 5504,
      "thir": 5505,
      "enjoy": 5506,
      "computer": 5507,
      "anged": 5508,
      "metres": 5509,
      "penalties": 5510,
      "Home": 5511,
      "aints": 5512,
      "contest": 5513,
      "operated": 5514,
      "disclosure": 5515,
      "depos": 5516,
      "Swed": 5517,
      "operational": 5518,
      "frame": 5519,
      "anger": 5520,
      "Trust": 5521,
      "completely": 5522,
      "opinion": 5523,
      "smo": 5524,
      "strugg": 5525,
      "situation": 5526,
      "bass": 5527,
      "Through": 5528,
      "Bank": 5529,
      "inth": 5530,
      "exerc": 5531,
      "causing": 5532,
      "Joseph": 5533,
      "edge": 5534,
      "assumed": 5535,
      "Ama": 5536,
      "ski": 5537,
      "Admiral": 5538,
      "AND": 5539,
      "Cathol": 5540,
      "tourn": 5541,
      "prop": 5542,
      "trust": 5543,
      "issuance": 5544,
      "organized": 5545,
      "alleged": 5546,
      "Tod": 5547,
      "enture": 5548,
      "EP": 5549,
      "Director": 5550,
      "serving": 5551,
      "materials": 5552,
      "influenced": 5553,
      "dependence": 5554,
      "Quarterly": 5555,
      "Society": 5556,
      "spread": 5557,
      "maintained": 5558,
      "chair": 5559,
      "ishop": 5560,
      "itude": 5561,
      "Captain": 5562,
      "Ob": 5563,
      "rael": 5564,
      "orses": 5565,
      "McC": 5566,
      "Vietnam": 5567,
      "Spr": 5568,
      "matur": 5569,
      "cher": 5570,
      "shell": 5571,
      "Manchester": 5572,
      "calls": 5573,
      "returns": 5574,
      "stories": 5575,
      "Jeff": 5576,
      "pedo": 5577,
      "impacted": 5578,
      "sequence": 5579,
      "BBC": 5580,
      "Far": 5581,
      "Arab": 5582,
      "calling": 5583,
      "explained": 5584,
      "cin": 5585,
      "Boston": 5586,
      "Lee": 5587,
      "aggregate": 5588,
      "Dun": 5589,
      "bes": 5590,
      "dro": 5591,
      "gian": 5592,
      "brid": 5593,
      "ease": 5594,
      "poet": 5595,
      "gency": 5596,
      "Purch": 5597,
      "grant": 5598,
      "increasingly": 5599,
      "confirmed": 5600,
      "guard": 5601,
      "waters": 5602,
      "repair": 5603,
      "Brad": 5604,
      "compete": 5605,
      "2019": 5606,
      "1920": 5607,
      "Commun": 5608,
      "holds": 5609,
      "accordance": 5610,
      "120": 5611,
      "armed": 5612,
      "Line": 5613,
      "ached": 5614,
      "officials": 5615,
      "Histor": 5616,
      "vulner": 5617,
      "Ell": 5618,
      "Harrison": 5619,
      "ENTS": 5620,
      "Academy": 5621,
      "Dar": 5622,
      "iny": 5623,
      "ensing": 5624,
      "Battalion": 5625,
      "contributed": 5626,
      "hun": 5627,
      "background": 5628,
      "decisions": 5629,
      "Fred": 5630,
      "resc": 5631,
      "feed": 5632,
      "credits": 5633,
      "birds": 5634,
      "Fleet": 5635,
      "atures": 5636,
      "observed": 5637,
      "Top": 5638,
      "arry": 5639,
      "frequently": 5640,
      "commissioned": 5641,
      "scheduled": 5642,
      "Kr": 5643,
      "phil": 5644,
      "Saint": 5645,
      "slo": 5646,
      "1990": 5647,
      "journal": 5648,
      "uge": 5649,
      "Little": 5650,
      "dividends": 5651,
      "appoint": 5652,
      "registered": 5653,
      "Revenues": 5654,
      "authority": 5655,
      "arms": 5656,
      "animals": 5657,
      "gained": 5658,
      "attend": 5659,
      "Well": 5660,
      "exc": 5661,
      "Cert": 5662,
      "Italy": 5663,
      "Main": 5664,
      "color": 5665,
      "contrast": 5666,
      "grew": 5667,
      "ita": 5668,
      "sixth": 5669,
      "folio": 5670,
      "Kar": 5671,
      "cers": 5672,
      "twelve": 5673,
      "1941": 5674,
      "iles": 5675,
      "drive": 5676,
      "struck": 5677,
      "evolving": 5678,
      "va": 5679,
      "iled": 5680,
      "trail": 5681,
      "BR": 5682,
      "CD": 5683,
      "infring": 5684,
      "Paris": 5685,
      "clus": 5686,
      "setting": 5687,
      "quir": 5688,
      "recognize": 5689,
      "arian": 5690,
      "roads": 5691,
      "torpedo": 5692,
      "innings": 5693,
      "capture": 5694,
      "appropriate": 5695,
      "unique": 5696,
      "preced": 5697,
      "1945": 5698,
      "machine": 5699,
      "rein": 5700,
      "useful": 5701,
      "regularly": 5702,
      "Museum": 5703,
      "Ram": 5704,
      "enemy": 5705,
      "Young": 5706,
      "forth": 5707,
      "Van": 5708,
      "repurchases": 5709,
      "alter": 5710,
      "Program": 5711,
      "analysis": 5712,
      "elsewhere": 5713,
      "husband": 5714,
      "leaders": 5715,
      "observable": 5716,
      "Way": 5717,
      "Avenue": 5718,
      "MD": 5719,
      "Tropical": 5720,
      "ahead": 5721,
      "seasons": 5722,
      "Live": 5723,
      "theless": 5724,
      "Columb": 5725,
      "Pop": 5726,
      "Ray": 5727,
      "conting": 5728,
      "expectations": 5729,
      "Jud": 5730,
      "preser": 5731,
      "eas": 5732,
      "today": 5733,
      "places": 5734,
      "opposed": 5735,
      "reject": 5736,
      "artists": 5737,
      "application": 5738,
      "vania": 5739,
      "laid": 5740,
      "passeng": 5741,
      "toward": 5742,
      "Stand": 5743,
      "Ca": 5744,
      "true": 5745,
      "governor": 5746,
      "proved": 5747,
      "ciples": 5748,
      "iano": 5749,
      "reception": 5750,
      "shortly": 5751,
      "advantage": 5752,
      "Sign": 5753,
      "ighth": 5754,
      "code": 5755,
      "challenges": 5756,
      "developments": 5757,
      "reaching": 5758,
      "Americans": 5759,
      "emot": 5760,
      "ody": 5761,
      "options": 5762,
      "ils": 5763,
      "northeast": 5764,
      "treatment": 5765,
      "ancy": 5766,
      "individuals": 5767,
      "File": 5768,
      "iron": 5769,
      "mond": 5770,
      "Solar": 5771,
      "BA": 5772,
      "Hurricane": 5773,
      "Dutch": 5774,
      "sense": 5775,
      "wel": 5776,
      "Changes": 5777,
      "Israel": 5778,
      "swe": 5779,
      "ert": 5780,
      "earth": 5781,
      "tun": 5782,
      "vary": 5783,
      "Valley": 5784,
      "injury": 5785,
      "Cir": 5786,
      "Tele": 5787,
      "pun": 5788,
      "favour": 5789,
      "Tay": 5790,
      "green": 5791,
      "adel": 5792,
      "phone": 5793,
      "sexual": 5794,
      "unknown": 5795,
      "stead": 5796,
      "budget": 5797,
      "93": 5798,
      "Bat": 5799,
      "channel": 5800,
      "Show": 5801,
      "cription": 5802,
      "Gal": 5803,
      "HL": 5804,
      "Pur": 5805,
      "allocated": 5806,
      "aga": 5807,
      "portfolio": 5808,
      "descrip": 5809,
      "initi": 5810,
      "measured": 5811,
      "ota": 5812,
      "aven": 5813,
      "Regiment": 5814,
      "greatest": 5815,
      "hospital": 5816,
      "eye": 5817,
      "cluding": 5818,
      "Eastern": 5819,
      "resh": 5820,
      "offering": 5821,
      "astic": 5822,
      "istry": 5823,
      "developers": 5824,
      "spring": 5825,
      "Croat": 5826,
      "Of": 5827,
      "Vice": 5828,
      "battleship": 5829,
      "intelligence": 5830,
      "payable": 5831,
      "Lie": 5832,
      "note": 5833,
      "heard": 5834,
      "coal": 5835,
      "Also": 5836,
      "ti": 5837,
      "circ": 5838,
      "prepared": 5839,
      "Pet": 5840,
      "dress": 5841,
      "itative": 5842,
      "older": 5843,
      "blue": 5844,
      "GAA": 5845,
      "stores": 5846,
      "Brigade": 5847,
      "Are": 5848,
      "1943": 5849,
      "achieved": 5850,
      "About": 5851,
      "infl": 5852,
      "boat": 5853,
      "pieces": 5854,
      "94": 5855,
      "stations": 5856,
      "ky": 5857,
      "usual": 5858,
      "Windows": 5859,
      "pitch": 5860,
      "teach": 5861,
      "enterprise": 5862,
      "alongside": 5863,
      "theory": 5864,
      "recently": 5865,
      "Ill": 5866,
      "accus": 5867,
      "residents": 5868,
      "creating": 5869,
      "365": 5870,
      "fa": 5871,
      "expenditures": 5872,
      "Football": 5873,
      "anna": 5874,
      "domestic": 5875,
      "anticipated": 5876,
      "ading": 5877,
      "push": 5878,
      "invasion": 5879,
      "manufactur": 5880,
      "Russia": 5881,
      "semiconduct": 5882,
      "orter": 5883,
      "1989": 5884,
      "Entertainment": 5885,
      "argued": 5886,
      "ibrary": 5887,
      "naval": 5888,
      "quant": 5889,
      "northwest": 5890,
      "says": 5891,
      "heavily": 5892,
      "illa": 5893,
      "officially": 5894,
      "itled": 5895,
      "mind": 5896,
      "vessel": 5897,
      "Daniel": 5898,
      "zy": 5899,
      "returning": 5900,
      "surrounding": 5901,
      "ument": 5902,
      "medical": 5903,
      "STAT": 5904,
      "Otto": 5905,
      "Such": 5906,
      "behalf": 5907,
      "drug": 5908,
      "fuel": 5909,
      "insul": 5910,
      "Polish": 5911,
      "engagement": 5912,
      "Andrew": 5913,
      "arent": 5914,
      "sens": 5915,
      "Holly": 5916,
      "monet": 5917,
      "copy": 5918,
      "visit": 5919,
      "complaint": 5920,
      "Victoria": 5921,
      "Glo": 5922,
      "LC": 5923,
      "dog": 5924,
      "appearances": 5925,
      "emphas": 5926,
      "84": 5927,
      "correct": 5928,
      "imply": 5929,
      "ano": 5930,
      "albums": 5931,
      "RSU": 5932,
      "Wol": 5933,
      "Loss": 5934,
      "roles": 5935,
      "amber": 5936,
      "nominated": 5937,
      "96": 5938,
      "Es": 5939,
      "Rog": 5940,
      "Though": 5941,
      "tells": 5942,
      "debuted": 5943,
      "details": 5944,
      "adapt": 5945,
      "reign": 5946,
      "virt": 5947,
      "GAAP": 5948,
      "horses": 5949,
      "deck": 5950,
      "Week": 5951,
      "contemporary": 5952,
      "choice": 5953,
      "reasons": 5954,
      "Field": 5955,
      "anta": 5956,
      "Supreme": 5957,
      "Mu": 5958,
      "ros": 5959,
      "promoted": 5960,
      "predict": 5961,
      "Irish": 5962,
      "consecut": 5963,
      "sky": 5964,
      "turns": 5965,
      "projects": 5966,
      "lan": 5967,
      "workers": 5968,
      "ingu": 5969,
      "spending": 5970,
      "county": 5971,
      "floor": 5972,
      "91": 5973,
      "hi": 5974,
      "kes": 5975,
      "university": 5976,
      "suits": 5977,
      "couple": 5978,
      "prec": 5979,
      "Principal": 5980,
      "citiz": 5981,
      "Mul": 5982,
      "leadership": 5983,
      "trees": 5984,
      "climate": 5985,
      "Family": 5986,
      "allows": 5987,
      "Mountain": 5988,
      "student": 5989,
      "trying": 5990,
      "Blue": 5991,
      "EU": 5992,
      "kg": 5993,
      "attr": 5994,
      "syl": 5995,
      "studies": 5996,
      "denied": 5997,
      "kilomet": 5998,
      "split": 5999,
      "Civil": 6000,
      "Effect": 6001,
      "approv": 6002,
      "arden": 6003,
      "discussed": 6004,
      "famous": 6005,
      "384": 6006,
      "figures": 6007,
      "fired": 6008,
      "inet": 6009,
      "Bey": 6010,
      "mn": 6011,
      "purpose": 6012,
      "obligation": 6013,
      "Bre": 6014,
      "kick": 6015,
      "lose": 6016,
      "2018": 6017,
      "fellow": 6018,
      "weapons": 6019,
      "centers": 6020,
      "Op": 6021,
      "Exp": 6022,
      "sections": 6023,
      "visual": 6024,
      "rac": 6025,
      "regarded": 6026,
      "prospect": 6027,
      "artillery": 6028,
      "bles": 6029,
      "apparent": 6030,
      "prominent": 6031,
      "81": 6032,
      "ole": 6033,
      "engaged": 6034,
      "Homer": 6035,
      "delay": 6036,
      "Stephen": 6037,
      "1988": 6038,
      "1980s": 6039,
      "passes": 6040,
      "tournament": 6041,
      "street": 6042,
      "consecutive": 6043,
      "oul": 6044,
      "audit": 6045,
      "planet": 6046,
      "Ol": 6047,
      "newly": 6048,
      "balances": 6049,
      "Condensed": 6050,
      "SR": 6051,
      "barr": 6052,
      "1960s": 6053,
      "Federal": 6054,
      "retired": 6055,
      "singles": 6056,
      "occasion": 6057,
      "Ocean": 6058,
      "pict": 6059,
      "Scottish": 6060,
      "battery": 6061,
      "Bul": 6062,
      "DS": 6063,
      "Marsh": 6064,
      "basic": 6065,
      "honor": 6066,
      "1A": 6067,
      "urban": 6068,
      "losing": 6069,
      "rise": 6070,
      "aved": 6071,
      "Guard": 6072,
      "Catholic": 6073,
      "Taylor": 6074,
      "effici": 6075,
      "extensive": 6076,
      "Columbia": 6077,
      "die": 6078,
      "championship": 6079,
      "sphere": 6080,
      "territory": 6081,
      "1940": 6082,
      "casual": 6083,
      "gal": 6084,
      "urt": 6085,
      "Conf": 6086,
      "filer": 6087,
      "Contin": 6088,
      "Light": 6089,
      "crash": 6090,
      "Even": 6091,
      "Braz": 6092,
      "Harry": 6093,
      "performing": 6094,
      "speech": 6095,
      "1986": 6096,
      "connected": 6097,
      "Background": 6098,
      "Amazon": 6099,
      "Bell": 6100,
      "bond": 6101,
      "1970s": 6102,
      "Alphabet": 6103,
      "inner": 6104,
      "itical": 6105,
      "Gil": 6106,
      "Hum": 6107,
      "Ko": 6108,
      "uating": 6109,
      "oured": 6110,
      "minimum": 6111,
      "store": 6112,
      "opportunity": 6113,
      "Eliz": 6114,
      "opportunities": 6115,
      "87": 6116,
      "von": 6117,
      "visited": 6118,
      "Pennsyl": 6119,
      "ounger": 6120,
      "paralle": 6121,
      "Alexander": 6122,
      "97": 6123,
      "god": 6124,
      "selection": 6125,
      "heads": 6126,
      "voy": 6127,
      "committee": 6128,
      "wid": 6129,
      "cells": 6130,
      "problem": 6131,
      "settled": 6132,
      "voted": 6133,
      "Rod": 6134,
      "formal": 6135,
      "legislation": 6136,
      "licensing": 6137,
      "BS": 6138,
      "hands": 6139,
      "administration": 6140,
      "rainfall": 6141,
      "Singap": 6142,
      "ram": 6143,
      "exposure": 6144,
      "Ash": 6145,
      "Link": 6146,
      "organizations": 6147,
      "Operation": 6148,
      "criticized": 6149,
      "discussion": 6150,
      "sty": 6151,
      "oph": 6152,
      "label": 6153,
      "Wilson": 6154,
      "ec": 6155,
      "Han": 6156,
      "chosen": 6157,
      "Constant": 6158,
      "Shares": 6159,
      "Governor": 6160,
      "herself": 6161,
      "Studios": 6162,
      "accident": 6163,
      "shared": 6164,
      "Colon": 6165,
      "mentioned": 6166,
      "gate": 6167,
      "ulations": 6168,
      "goods": 6169,
      "itz": 6170,
      "stre": 6171,
      "ette": 6172,
      "twice": 6173,
      "Georg": 6174,
      "improved": 6175,
      "Carolina": 6176,
      "Down": 6177,
      "ensure": 6178,
      "acher": 6179,
      "Singapore": 6180,
      "enge": 6181,
      "oppon": 6182,
      "council": 6183,
      "receivable": 6184,
      "roof": 6185,
      "exhib": 6186,
      "aded": 6187,
      "Dollar": 6188,
      "astr": 6189,
      "extr": 6190,
      "finish": 6191,
      "1987": 6192,
      "aspects": 6193,
      "Pennsylvania": 6194,
      "availability": 6195,
      "cuit": 6196,
      "ucky": 6197,
      "Night": 6198,
      "soundtrack": 6199,
      "Ve": 6200,
      "recru": 6201,
      "Mike": 6202,
      "ckey": 6203,
      "filming": 6204,
      "marine": 6205,
      "expanded": 6206,
      "measurement": 6207,
      "Duke": 6208,
      "Writ": 6209,
      "tend": 6210,
      "encounter": 6211,
      "historian": 6212,
      "plaint": 6213,
      "ideas": 6214,
      "equal": 6215,
      "Morris": 6216,
      "comply": 6217,
      "draft": 6218,
      "volat": 6219,
      "fare": 6220,
      "supporting": 6221,
      "involving": 6222,
      "spirit": 6223,
      "perfect": 6224,
      "strike": 6225,
      "83": 6226,
      "RP": 6227,
      "agent": 6228,
      "transaction": 6229,
      "Registrant": 6230,
      "participated": 6231,
      "holder": 6232,
      "Grant": 6233,
      "Fantasy": 6234,
      "ini": 6235,
      "editor": 6236,
      "uration": 6237,
      "mile": 6238,
      "accompan": 6239,
      "seat": 6240,
      "urb": 6241,
      "usage": 6242,
      "assessment": 6243,
      "folk": 6244,
      "vant": 6245,
      "Production": 6246,
      "AD": 6247,
      "entitled": 6248,
      "grap": 6249,
      "walls": 6250,
      "enhance": 6251,
      "abandoned": 6252,
      "Bol": 6253,
      "resto": 6254,
      "Restruct": 6255,
      "planning": 6256,
      "subscription": 6257,
      "Restructuring": 6258,
      "Tech": 6259,
      "engineering": 6260,
      "arrangement": 6261,
      "Storm": 6262,
      "silver": 6263,
      "moment": 6264,
      "Elect": 6265,
      "Ul": 6266,
      "changing": 6267,
      "Amoun": 6268,
      "Sand": 6269,
      "session": 6270,
      "demonstr": 6271,
      "lers": 6272,
      "simply": 6273,
      "ental": 6274,
      "consul": 6275,
      "railway": 6276,
      "Det": 6277,
      "throw": 6278,
      "backed": 6279,
      "properties": 6280,
      "bodies": 6281,
      "Hy": 6282,
      "Wat": 6283,
      "wild": 6284,
      "atom": 6285,
      "Senate": 6286,
      "chose": 6287,
      "idential": 6288,
      "Mean": 6289,
      "Arm": 6290,
      "door": 6291,
      "acquire": 6292,
      "committed": 6293,
      "component": 6294,
      "Brazil": 6295,
      "Dam": 6296,
      "Mah": 6297,
      "ern": 6298,
      "Allied": 6299,
      "Mur": 6300,
      "ester": 6301,
      "fly": 6302,
      "Chart": 6303,
      "driving": 6304,
      "effectiveness": 6305,
      "narr": 6306,
      "sports": 6307,
      "experiment": 6308,
      "esc": 6309,
      "92": 6310,
      "native": 6311,
      "leaves": 6312,
      "controlled": 6313,
      "cultural": 6314,
      "onomy": 6315,
      "Less": 6316,
      "plants": 6317,
      "Festival": 6318,
      "escape": 6319,
      "Islands": 6320,
      "vendors": 6321,
      "86": 6322,
      "comment": 6323,
      "merch": 6324,
      "headquarters": 6325,
      "Sl": 6326,
      "thes": 6327,
      "What": 6328,
      "Square": 6329,
      "Proceed": 6330,
      "entirely": 6331,
      "PA": 6332,
      "protest": 6333,
      "tenance": 6334,
      "amended": 6335,
      "nothing": 6336,
      "Spain": 6337,
      "COM": 6338,
      "Capital": 6339,
      "opposition": 6340,
      "Sel": 6341,
      "zo": 6342,
      "height": 6343,
      "offensive": 6344,
      "junction": 6345,
      "gather": 6346,
      "Institute": 6347,
      "forming": 6348,
      "Castle": 6349,
      "ule": 6350,
      "imens": 6351,
      "producers": 6352,
      "economy": 6353,
      "ATED": 6354,
      "adoption": 6355,
      "Ha": 6356,
      "inations": 6357,
      "Beat": 6358,
      "structures": 6359,
      "Card": 6360,
      "mary": 6361,
      "wave": 6362,
      "exceed": 6363,
      "investigation": 6364,
      "breach": 6365,
      "inn": 6366,
      "regional": 6367,
      "concerns": 6368,
      "Mode": 6369,
      "Wel": 6370,
      "Rest": 6371,
      "wart": 6372,
      "ully": 6373,
      "containing": 6374,
      "converted": 6375,
      "ket": 6376,
      "wounded": 6377,
      "Pu": 6378,
      "fear": 6379,
      "perman": 6380,
      "retail": 6381,
      "Ohio": 6382,
      "82": 6383,
      "WS": 6384,
      "plus": 6385,
      "ava": 6386,
      "disput": 6387,
      "Joe": 6388,
      "methods": 6389,
      "repeated": 6390,
      "imag": 6391,
      "broken": 6392,
      "facility": 6393,
      "conserv": 6394,
      "belief": 6395,
      "consistent": 6396,
      "IG": 6397,
      "brown": 6398,
      "chance": 6399,
      "apped": 6400,
      "filmed": 6401,
      "Lew": 6402,
      "People": 6403,
      "CIA": 6404,
      "lee": 6405,
      "tree": 6406,
      "shop": 6407,
      "Liber": 6408,
      "automotive": 6409,
      "abeth": 6410,
      "mut": 6411,
      "dex": 6412,
      "awa": 6413,
      "boats": 6414,
      "possibly": 6415,
      "Critical": 6416,
      "oral": 6417,
      "providers": 6418,
      "iques": 6419,
      "Mun": 6420,
      "Sa": 6421,
      "mode": 6422,
      "Reception": 6423,
      "introduction": 6424,
      "Christmas": 6425,
      "substantially": 6426,
      "adequate": 6427,
      "DE": 6428,
      "shore": 6429,
      "Prof": 6430,
      "obtained": 6431,
      "Secretary": 6432,
      "Free": 6433,
      "iar": 6434,
      "union": 6435,
      "Unrealized": 6436,
      "franch": 6437,
      "EMENTS": 6438,
      "700": 6439,
      "rival": 6440,
      "emerging": 6441,
      "preciation": 6442,
      "titles": 6443,
      "deemed": 6444,
      "2017": 6445,
      "extra": 6446,
      "accounted": 6447,
      "opol": 6448,
      "continuing": 6449,
      "Cas": 6450,
      "derived": 6451,
      "160": 6452,
      "protected": 6453,
      "applied": 6454,
      "outcome": 6455,
      "attle": 6456,
      "symp": 6457,
      "Certain": 6458,
      "sustained": 6459,
      "Tem": 6460,
      "dial": 6461,
      "differences": 6462,
      "Doctor": 6463,
      "ifically": 6464,
      "umes": 6465,
      "fines": 6466,
      "interchange": 6467,
      "charged": 6468,
      "1990s": 6469,
      "publish": 6470,
      "Republ": 6471,
      "Delaware": 6472,
      "younger": 6473,
      "covers": 6474,
      "principles": 6475,
      "UR": 6476,
      "homes": 6477,
      "Hon": 6478,
      "rush": 6479,
      "aling": 6480,
      "sequences": 6481,
      "semiconductor": 6482,
      "Pen": 6483,
      "ounder": 6484,
      "Est": 6485,
      "ergy": 6486,
      "sche": 6487,
      "Number": 6488,
      "squadron": 6489,
      "Deferred": 6490,
      "families": 6491,
      "Sound": 6492,
      "1939": 6493,
      "icks": 6494,
      "aby": 6495,
      "offers": 6496,
      "Origin": 6497,
      "rum": 6498,
      "eyes": 6499,
      "powers": 6500,
      "Bud": 6501,
      "Disclo": 6502,
      "uncertainties": 6503,
      "knowledge": 6504,
      "Dig": 6505,
      "WW": 6506,
      "inputs": 6507,
      "disease": 6508,
      "ternal": 6509,
      "enforcement": 6510,
      "sheets": 6511,
      "Results": 6512,
      "3rd": 6513,
      "VI": 6514,
      "uries": 6515,
      "porters": 6516,
      "flying": 6517,
      "onic": 6518,
      "auto": 6519,
      "Boy": 6520,
      "criticism": 6521,
      "safe": 6522,
      "irls": 6523,
      "solar": 6524,
      "Among": 6525,
      "sac": 6526,
      "quis": 6527,
      "anning": 6528,
      "cybersecurity": 6529,
      "dev": 6530,
      "avalry": 6531,
      "resolution": 6532,
      "Republican": 6533,
      "750": 6534,
      "Based": 6535,
      "EC": 6536,
      "Sher": 6537,
      "acad": 6538,
      "formula": 6539,
      "industrial": 6540,
      "difficulty": 6541,
      "ux": 6542,
      "Prime": 6543,
      "commonly": 6544,
      "defensive": 6545,
      "shark": 6546,
      "End": 6547,
      "closely": 6548,
      "Revolution": 6549,
      "ki": 6550,
      "Order": 6551,
      "fought": 6552,
      "mounted": 6553,
      "Power": 6554,
      "akers": 6555,
      "ultural": 6556,
      "describes": 6557,
      "suggests": 6558,
      "rooms": 6559,
      "tall": 6560,
      "strik": 6561,
      "environmental": 6562,
      "occupied": 6563,
      "Kir": 6564,
      "Ow": 6565,
      "narrow": 6566,
      "rig": 6567,
      "print": 6568,
      "landing": 6569,
      "killing": 6570,
      "reedom": 6571,
      "ignment": 6572,
      "Mir": 6573,
      "enable": 6574,
      "withdraw": 6575,
      "ancient": 6576,
      "Album": 6577,
      "Priv": 6578,
      "briefly": 6579,
      "kilometres": 6580,
      "Industr": 6581,
      "generate": 6582,
      "Rem": 6583,
      "uit": 6584,
      "currencies": 6585,
      "fields": 6586,
      "Mas": 6587,
      "sort": 6588,
      "strip": 6589,
      "display": 6590,
      "kee": 6591,
      "Jersey": 6592,
      "page": 6593,
      "placing": 6594,
      "Once": 6595,
      "dividend": 6596,
      "Die": 6597,
      "representing": 6598,
      "Di": 6599,
      "Greg": 6600,
      "entry": 6601,
      "philoso": 6602,
      "38449": 6603,
      "Meanwhile": 6604,
      "ape": 6605,
      "goes": 6606,
      "guaran": 6607,
      "reserve": 6608,
      "controlling": 6609,
      "employment": 6610,
      "Ron": 6611,
      "Xbox": 6612,
      "crossing": 6613,
      "accompanied": 6614,
      "ITEM": 6615,
      "110": 6616,
      "champion": 6617,
      "anging": 6618,
      "elling": 6619,
      "limitations": 6620,
      "yellow": 6621,
      "isol": 6622,
      "contact": 6623,
      "collected": 6624,
      "Carr": 6625,
      "fat": 6626,
      "1970": 6627,
      "letters": 6628,
      "Lim": 6629,
      "oppos": 6630,
      "1984": 6631,
      "qualified": 6632,
      "Face": 6633,
      "Len": 6634,
      "Never": 6635,
      "surrender": 6636,
      "estate": 6637,
      "iana": 6638,
      "ighted": 6639,
      "expedition": 6640,
      "Albert": 6641,
      "Supple": 6642,
      "Cus": 6643,
      "Ep": 6644,
      "IES": 6645,
      "Nat": 6646,
      "ias": 6647,
      "analy": 6648,
      "mann": 6649,
      "seventh": 6650,
      "animal": 6651,
      "Cambridge": 6652,
      "relevant": 6653,
      "didn": 6654,
      "Francisco": 6655,
      "adelph": 6656,
      "evac": 6657,
      "singing": 6658,
      "trains": 6659,
      "Here": 6660,
      "indicated": 6661,
      "Philadelph": 6662,
      "Elizabeth": 6663,
      "reasonably": 6664,
      "imal": 6665,
      "dry": 6666,
      "Coast": 6667,
      "infantry": 6668,
      "exposed": 6669,
      "joint": 6670,
      "Kel": 6671,
      "gives": 6672,
      "maintenance": 6673,
      "talent": 6674,
      "AP": 6675,
      "Nintend": 6676,
      "caught": 6677,
      "acks": 6678,
      "article": 6679,
      "Bart": 6680,
      "Found": 6681,
      "Korean": 6682,
      "hill": 6683,
      "rely": 6684,
      "illy": 6685,
      "1968": 6686,
      "genus": 6687,
      "incurred": 6688,
      "category": 6689,
      "FIN": 6690,
      "Jes": 6691,
      "fine": 6692,
      "iments": 6693,
      "drama": 6694,
      "Prior": 6695,
      "delays": 6696,
      "Nintendo": 6697,
      "Cub": 6698,
      "Liver": 6699,
      "relations": 6700,
      "timely": 6701,
      "tower": 6702,
      "Bir": 6703,
      "DM": 6704,
      "atmo": 6705,
      "quite": 6706,
      "uncertainty": 6707,
      "Justice": 6708,
      "FL": 6709,
      "FOR": 6710,
      "constitution": 6711,
      "osaur": 6712,
      "steam": 6713,
      "entities": 6714,
      "peace": 6715,
      "Prin": 6716,
      "consideration": 6717,
      "reduction": 6718,
      "orches": 6719,
      "tery": 6720,
      "1967": 6721,
      "Proper": 6722,
      "burgh": 6723,
      "rejected": 6724,
      "Philadelphia": 6725,
      "Gall": 6726,
      "egg": 6727,
      "ola": 6728,
      "ett": 6729,
      "weighted": 6730,
      "Network": 6731,
      "SOL": 6732,
      "cked": 6733,
      "retire": 6734,
      "battalion": 6735,
      "Var": 6736,
      "catch": 6737,
      "nick": 6738,
      "stein": 6739,
      "subsidiaries": 6740,
      "indu": 6741,
      "existence": 6742,
      "mist": 6743,
      "sand": 6744,
      "islands": 6745,
      "Ass": 6746,
      "kins": 6747,
      "icial": 6748,
      "centuries": 6749,
      "Performan": 6750,
      "TO": 6751,
      "Yu": 6752,
      "gam": 6753,
      "terior": 6754,
      "adding": 6755,
      "publicly": 6756,
      "indicate": 6757,
      "witness": 6758,
      "STATEMENTS": 6759,
      "130": 6760,
      "haps": 6761,
      "occurs": 6762,
      "references": 6763,
      "inger": 6764,
      "cussion": 6765,
      "Rus": 6766,
      "nuclear": 6767,
      "CONSOL": 6768,
      "CONSOLID": 6769,
      "stal": 6770,
      "why": 6771,
      "Robin": 6772,
      "dedicated": 6773,
      "goodwill": 6774,
      "eleven": 6775,
      "credited": 6776,
      "touchdown": 6777,
      "semi": 6778,
      "conve": 6779,
      "solo": 6780,
      "FC": 6781,
      "ceremony": 6782,
      "quoted": 6783,
      "Gulf": 6784,
      "iro": 6785,
      "wr": 6786,
      "wan": 6787,
      "finds": 6788,
      "cé": 6789,
      "Radio": 6790,
      "Gib": 6791,
      "etic": 6792,
      "1972": 6793,
      "electronic": 6794,
      "Georgia": 6795,
      "partner": 6796,
      "techniques": 6797,
      "proceeds": 6798,
      "thousands": 6799,
      "Lieutenant": 6800,
      "Turn": 6801,
      "agan": 6802,
      "distributed": 6803,
      "dismissed": 6804,
      "affair": 6805,
      "Engine": 6806,
      "manufacture": 6807,
      "ients": 6808,
      "fee": 6809,
      "disc": 6810,
      "Head": 6811,
      "cycle": 6812,
      "ares": 6813,
      "Chap": 6814,
      "covering": 6815,
      "1971": 6816,
      "bands": 6817,
      "photograph": 6818,
      "Lincol": 6819,
      "Factors": 6820,
      "iter": 6821,
      "collap": 6822,
      "Date": 6823,
      "consisting": 6824,
      "Hollywood": 6825,
      "Byz": 6826,
      "Steve": 6827,
      "Metro": 6828,
      "seeking": 6829,
      "installed": 6830,
      "Jun": 6831,
      "daily": 6832,
      "yo": 6833,
      "restruct": 6834,
      "Az": 6835,
      "Hit": 6836,
      "mate": 6837,
      "utr": 6838,
      "arc": 6839,
      "investing": 6840,
      "supplies": 6841,
      "duties": 6842,
      "Dor": 6843,
      "reli": 6844,
      "responsibility": 6845,
      "casualties": 6846,
      "simple": 6847,
      "conference": 6848,
      "1914": 6849,
      "1985": 6850,
      "restling": 6851,
      "CONSOLIDATED": 6852,
      "Bon": 6853,
      "Tit": 6854,
      "ctic": 6855,
      "ulture": 6856,
      "themes": 6857,
      "Ten": 6858,
      "ador": 6859,
      "cel": 6860,
      "capable": 6861,
      "description": 6862,
      "hired": 6863,
      "ining": 6864,
      "difficulties": 6865,
      "environments": 6866,
      "rick": 6867,
      "belong": 6868,
      "upgrad": 6869,
      "ashion": 6870,
      "BRL": 6871,
      "Lincoln": 6872,
      "CR": 6873,
      "Flo": 6874,
      "knew": 6875,
      "none": 6876,
      "quarterly": 6877,
      "Sus": 6878,
      "XBRL": 6879,
      "fur": 6880,
      "ko": 6881,
      "azz": 6882,
      "Byzant": 6883,
      "causes": 6884,
      "employed": 6885,
      "duty": 6886,
      "warranty": 6887,
      "Gro": 6888,
      "Mod": 6889,
      "Tro": 6890,
      "nic": 6891,
      "lyn": 6892,
      "investors": 6893,
      "Point": 6894,
      "cars": 6895,
      "Disney": 6896,
      "architecture": 6897,
      "Liverpool": 6898,
      "Wars": 6899,
      "lane": 6900,
      "notable": 6901,
      "isted": 6902,
      "Railway": 6903,
      "corresponding": 6904,
      "Ottoman": 6905,
      "FINAN": 6906,
      "beaut": 6907,
      "classes": 6908,
      "HMS": 6909,
      "Mot": 6910,
      "eu": 6911,
      "flooding": 6912,
      "Between": 6913,
      "Technology": 6914,
      "Rome": 6915,
      "1918": 6916,
      "1964": 6917,
      "composition": 6918,
      "18th": 6919,
      "potentially": 6920,
      "learning": 6921,
      "IGN": 6922,
      "gs": 6923,
      "anda": 6924,
      "istan": 6925,
      "Conference": 6926,
      "Tam": 6927,
      "format": 6928,
      "Third": 6929,
      "1982": 6930,
      "testing": 6931,
      "dollars": 6932,
      "Jewish": 6933,
      "comedy": 6934,
      "Review": 6935,
      "Performance": 6936,
      "Lis": 6937,
      "branch": 6938,
      "receiving": 6939,
      "Germans": 6940,
      "sun": 6941,
      "resem": 6942,
      "headed": 6943,
      "1983": 6944,
      "Brook": 6945,
      "mig": 6946,
      "inquir": 6947,
      "select": 6948,
      "Champion": 6949,
      "desc": 6950,
      "Brian": 6951,
      "processing": 6952,
      "funding": 6953,
      "stages": 6954,
      "1974": 6955,
      "approval": 6956,
      "tools": 6957,
      "charts": 6958,
      "1980": 6959,
      "eral": 6960,
      "utable": 6961,
      "victim": 6962,
      "1966": 6963,
      "equivalent": 6964,
      "intensity": 6965,
      "Carey": 6966,
      "amin": 6967,
      "prot": 6968,
      "optim": 6969,
      "Autom": 6970,
      "reflected": 6971,
      "defence": 6972,
      "glass": 6973,
      "PlayStation": 6974,
      "march": 6975,
      "rear": 6976,
      "achu": 6977,
      "graphics": 6978,
      "Fall": 6979,
      "comic": 6980,
      "monitor": 6981,
      "arrival": 6982,
      "shipping": 6983,
      "viewed": 6984,
      "Water": 6985,
      "declined": 6986,
      "Burn": 6987,
      "Serb": 6988,
      "ificial": 6989,
      "chor": 6990,
      "oles": 6991,
      "Child": 6992,
      "motor": 6993,
      "error": 6994,
      "publication": 6995,
      "institutions": 6996,
      "Hay": 6997,
      "save": 6998,
      "ules": 6999,
      "offices": 7000,
      "painting": 7001,
      "psych": 7002,
      "Daily": 7003,
      "Jour": 7004,
      "Davis": 7005,
      "temperature": 7006,
      "fulfillment": 7007,
      "perceived": 7008,
      "Bru": 7009,
      "remainder": 7010,
      "shape": 7011,
      "unte": 7012,
      "designs": 7013,
      "Anderson": 7014,
      "modified": 7015,
      "fre": 7016,
      "lb": 7017,
      "trip": 7018,
      "Emperor": 7019,
      "Ly": 7020,
      "courts": 7021,
      "determination": 7022,
      "Kong": 7023,
      "Pers": 7024,
      "Tal": 7025,
      "fresh": 7026,
      "iber": 7027,
      "adult": 7028,
      "willing": 7029,
      "evaluate": 7030,
      "Ant": 7031,
      "Profess": 7032,
      "restructuring": 7033,
      "piano": 7034,
      "vior": 7035,
      "enters": 7036,
      "hear": 7037,
      "evin": 7038,
      "shooting": 7039,
      "Democratic": 7040,
      "Dark": 7041,
      "gers": 7042,
      "propr": 7043,
      "margins": 7044,
      "Ven": 7045,
      "device": 7046,
      "element": 7047,
      "rupt": 7048,
      "Jean": 7049,
      "demo": 7050,
      "Unaudited": 7051,
      "Arts": 7052,
      "threatened": 7053,
      "document": 7054,
      "Lewis": 7055,
      "fal": 7056,
      "instruct": 7057,
      "ancer": 7058,
      "1969": 7059,
      "believes": 7060,
      "sport": 7061,
      "reaction": 7062,
      "engines": 7063,
      "ruled": 7064,
      "Term": 7065,
      "CIAL": 7066,
      "Aust": 7067,
      "knot": 7068,
      "”),": 7069,
      "ray": 7070,
      "criminal": 7071,
      "Lind": 7072,
      "Special": 7073,
      "inal": 7074,
      "apt": 7075,
      "Olympic": 7076,
      "Summer": 7077,
      "Gen": 7078,
      "ramp": 7079,
      "unders": 7080,
      "injured": 7081,
      "Mos": 7082,
      "anything": 7083,
      "promote": 7084,
      "Ra": 7085,
      "anth": 7086,
      "perior": 7087,
      "disclosures": 7088,
      "Hun": 7089,
      "án": 7090,
      "igate": 7091,
      "releases": 7092,
      "magn": 7093,
      "popularity": 7094,
      "franchise": 7095,
      "CH": 7096,
      "len": 7097,
      "cles": 7098,
      "cricket": 7099,
      "Only": 7100,
      "Gill": 7101,
      "manufacturers": 7102,
      "1977": 7103,
      "Morgan": 7104,
      "pending": 7105,
      "eds": 7106,
      "stayed": 7107,
      "engage": 7108,
      "producing": 7109,
      "responded": 7110,
      "squad": 7111,
      "iger": 7112,
      "constr": 7113,
      "1973": 7114,
      "functions": 7115,
      "NHL": 7116,
      "missions": 7117,
      "Mount": 7118,
      "ilton": 7119,
      "plane": 7120,
      "portray": 7121,
      "1950s": 7122,
      "cool": 7123,
      "arranged": 7124,
      "specifically": 7125,
      "advoc": 7126,
      "Bad": 7127,
      "inspir": 7128,
      "capabilities": 7129,
      "views": 7130,
      "enjoyed": 7131,
      "IR": 7132,
      "ownership": 7133,
      "Conserv": 7134,
      "possibility": 7135,
      "Muslim": 7136,
      "Accounts": 7137,
      "attributable": 7138,
      "scientific": 7139,
      "CEO": 7140,
      "cited": 7141,
      "cock": 7142,
      "southeast": 7143,
      "grapher": 7144,
      "Gree": 7145,
      "ih": 7146,
      "uan": 7147,
      "Syd": 7148,
      "Pit": 7149,
      "renamed": 7150,
      "improvements": 7151,
      "01": 7152,
      "Open": 7153,
      "file": 7154,
      "1975": 7155,
      "Miller": 7156,
      "dram": 7157,
      "delayed": 7158,
      "oto": 7159,
      "setts": 7160,
      "getting": 7161,
      "Base": 7162,
      "det": 7163,
      "poem": 7164,
      "literature": 7165,
      "shaped": 7166,
      "Ka": 7167,
      "Pay": 7168,
      "exclus": 7169,
      "BN": 7170,
      "inf": 7171,
      "Kentucky": 7172,
      "Jr": 7173,
      "asure": 7174,
      "Rose": 7175,
      "Massachu": 7176,
      "Flow": 7177,
      "lawsuits": 7178,
      "Carl": 7179,
      "FINANCIAL": 7180,
      "controversy": 7181,
      "liber": 7182,
      "myth": 7183,
      "Women": 7184,
      "rhy": 7185,
      "concl": 7186,
      "shif": 7187,
      "consci": 7188,
      "1979": 7189,
      "receivables": 7190,
      "innov": 7191,
      "Massachusetts": 7192,
      "Fire": 7193,
      "ye": 7194,
      "zen": 7195,
      "Corporate": 7196,
      "Les": 7197,
      "heim": 7198,
      "raise": 7199,
      "cludes": 7200,
      "allowance": 7201,
      "apply": 7202,
      "steel": 7203,
      "Pass": 7204,
      "bid": 7205,
      "repurchased": 7206,
      "promotion": 7207,
      "intersection": 7208,
      "classification": 7209,
      "antly": 7210,
      "calc": 7211,
      "genre": 7212,
      "Earl": 7213,
      "Band": 7214,
      "actress": 7215,
      "1965": 7216,
      "infringe": 7217,
      "Property": 7218,
      "cold": 7219,
      "iful": 7220,
      "offs": 7221,
      "Norway": 7222,
      "assault": 7223,
      "roughly": 7224,
      "sellers": 7225,
      "retained": 7226,
      "Av": 7227,
      "stable": 7228,
      "1915": 7229,
      "asty": 7230,
      "1981": 7231,
      "Hugh": 7232,
      "entrance": 7233,
      "merce": 7234,
      "succeeded": 7235,
      "initiatives": 7236,
      "trou": 7237,
      "rence": 7238,
      "closing": 7239,
      "Begin": 7240,
      "teenth": 7241,
      "brothers": 7242,
      "weakened": 7243,
      "ordinary": 7244,
      "behavior": 7245,
      "phase": 7246,
      "1976": 7247,
      "discuss": 7248,
      "Press": 7249,
      "Run": 7250,
      "gall": 7251,
      "youth": 7252,
      "watched": 7253,
      "Related": 7254,
      "Rhodes": 7255,
      "Pot": 7256,
      "submitted": 7257,
      "movements": 7258,
      "Description": 7259,
      "approached": 7260,
      "Age": 7261,
      "Let": 7262,
      "archy": 7263,
      "1948": 7264,
      "clean": 7265,
      "turning": 7266,
      "Lady": 7267,
      "MC": 7268,
      "agents": 7269,
      "1916": 7270,
      "Assets": 7271,
      "easily": 7272,
      "respective": 7273,
      "integrated": 7274,
      "Spring": 7275,
      "Ele": 7276,
      "Gord": 7277,
      "Nap": 7278,
      "bom": 7279,
      "ders": 7280,
      "marks": 7281,
      "neighbor": 7282,
      "resistance": 7283,
      "Mulder": 7284,
      "escap": 7285,
      "abour": 7286,
      "inois": 7287,
      "learned": 7288,
      "subscriptions": 7289,
      "fashion": 7290,
      "landfall": 7291,
      "bringing": 7292,
      "oo": 7293,
      "imposed": 7294,
      "exact": 7295,
      "aka": 7296,
      "auth": 7297,
      "Ba": 7298,
      "endment": 7299,
      "southwest": 7300,
      "earliest": 7301,
      "Gra": 7302,
      "oncé": 7303,
      "verage": 7304,
      "Administr": 7305,
      "summar": 7306,
      "buried": 7307,
      "finding": 7308,
      "Media": 7309,
      "zone": 7310,
      "serves": 7311,
      "distingu": 7312,
      "privately": 7313,
      "Walter": 7314,
      "Colonel": 7315,
      "acres": 7316,
      "flat": 7317,
      "Refer": 7318,
      "completion": 7319,
      "importance": 7320,
      "Moore": 7321,
      "tank": 7322,
      "museum": 7323,
      "140": 7324,
      "lake": 7325,
      "2028": 7326,
      "answ": 7327,
      "Debt": 7328,
      "indirect": 7329,
      "milit": 7330,
      "entering": 7331,
      "vesting": 7332,
      "Security": 7333,
      "Similar": 7334,
      "Imperial": 7335,
      "escort": 7336,
      "Naz": 7337,
      "mad": 7338,
      "solution": 7339,
      "grounds": 7340,
      "storyline": 7341,
      "tension": 7342,
      "wides": 7343,
      "decor": 7344,
      "pled": 7345,
      "interested": 7346,
      "denomin": 7347,
      "restrict": 7348,
      "Prem": 7349,
      "heat": 7350,
      "Fre": 7351,
      "1917": 7352,
      "ietary": 7353,
      "violence": 7354,
      "candidate": 7355,
      "cab": 7356,
      "gro": 7357,
      "servers": 7358,
      "Plat": 7359,
      "Ice": 7360,
      "implemented": 7361,
      "ratings": 7362,
      "Model": 7363,
      "Dream": 7364,
      "til": 7365,
      "communications": 7366,
      "replacement": 7367,
      "Beyoncé": 7368,
      "een": 7369,
      "2027": 7370,
      "filled": 7371,
      "joining": 7372,
      "Sydney": 7373,
      "onso": 7374,
      "ductions": 7375,
      "pread": 7376,
      "equipped": 7377,
      "vac": 7378,
      "fron": 7379,
      "forecast": 7380,
      "Simpsons": 7381,
      "dens": 7382,
      "iversary": 7383,
      "hydro": 7384,
      "opolitical": 7385,
      "Digital": 7386,
      "inking": 7387,
      "thereafter": 7388,
      "mises": 7389,
      "scholar": 7390,
      "rose": 7391,
      "stic": 7392,
      "ura": 7393,
      "identify": 7394,
      "Activ": 7395,
      "GPU": 7396,
      "NC": 7397,
      "bb": 7398,
      "mort": 7399,
      "recur": 7400,
      "Internet": 7401,
      "Cape": 7402,
      "Golden": 7403,
      "elled": 7404,
      "writes": 7405,
      "Work": 7406,
      "campus": 7407,
      "preparation": 7408,
      "corner": 7409,
      "identity": 7410,
      "cruiser": 7411,
      "Hart": 7412,
      "perhaps": 7413,
      "overs": 7414,
      "Songs": 7415,
      "artificial": 7416,
      "borough": 7417,
      "humans": 7418,
      "cruisers": 7419,
      "bottom": 7420,
      "IC": 7421,
      "uff": 7422,
      "seem": 7423,
      "intense": 7424,
      "baseball": 7425,
      "communication": 7426,
      "900": 7427,
      "diver": 7428,
      "showing": 7429,
      "Poland": 7430,
      "istol": 7431,
      "Pa": 7432,
      "wich": 7433,
      "external": 7434,
      "Real": 7435,
      "routes": 7436,
      "gor": 7437,
      "poly": 7438,
      "Who": 7439,
      "termination": 7440,
      "gameplay": 7441,
      "depending": 7442,
      "skin": 7443,
      "sie": 7444,
      "stadium": 7445,
      "1919": 7446,
      "annon": 7447,
      "Airport": 7448,
      "tanks": 7449,
      "moves": 7450,
      "lat": 7451,
      "univers": 7452,
      "owner": 7453,
      "loan": 7454,
      "Design": 7455,
      "icipal": 7456,
      "images": 7457,
      "solute": 7458,
      "judge": 7459,
      "bac": 7460,
      "disp": 7461,
      "metrics": 7462,
      "expensive": 7463,
      "1963": 7464,
      "winner": 7465,
      "stopped": 7466,
      "improv": 7467,
      "Init": 7468,
      "4th": 7469,
      "MTV": 7470,
      "Video": 7471,
      "ridge": 7472,
      "seems": 7473,
      "Internal": 7474,
      "Significant": 7475,
      "Dil": 7476,
      "bought": 7477,
      "pace": 7478,
      "rons": 7479,
      "idance": 7480,
      "agric": 7481,
      "Cho": 7482,
      "Anth": 7483,
      "breaking": 7484,
      "Space": 7485,
      "trends": 7486,
      "Jay": 7487,
      "ua": 7488,
      "intr": 7489,
      "unsuccessful": 7490,
      "convin": 7491,
      "Theat": 7492,
      "crete": 7493,
      "recommended": 7494,
      "Key": 7495,
      "challenge": 7496,
      "tact": 7497,
      "depreciation": 7498,
      "incidents": 7499,
      "Beginning": 7500,
      "independence": 7501,
      "affil": 7502,
      "melo": 7503,
      "sheet": 7504,
      "experiences": 7505,
      "parallel": 7506,
      "FORM": 7507,
      "Edu": 7508,
      "Pict": 7509,
      "wed": 7510,
      "Organ": 7511,
      "gradually": 7512,
      "ASU": 7513,
      "promise": 7514,
      "Confeder": 7515,
      "brain": 7516,
      "understanding": 7517,
      "survey": 7518,
      "decade": 7519,
      "freeway": 7520,
      "nomination": 7521,
      "maturities": 7522,
      "pin": 7523,
      "paint": 7524,
      "leep": 7525,
      "seas": 7526,
      "extension": 7527,
      "missing": 7528,
      "Olympics": 7529,
      "monetary": 7530,
      "Ball": 7531,
      "secondary": 7532,
      "distribut": 7533,
      "crowd": 7534,
      "cinem": 7535,
      "Automotive": 7536,
      "lasted": 7537,
      "Mit": 7538,
      "lets": 7539,
      "una": 7540,
      "Stadium": 7541,
      "ampions": 7542,
      "1946": 7543,
      "studied": 7544,
      "claiming": 7545,
      "1960": 7546,
      "Legal": 7547,
      "sects": 7548,
      "extremely": 7549,
      "nie": 7550,
      "agency": 7551,
      "shorter": 7552,
      "poser": 7553,
      "foss": 7554,
      "assistant": 7555,
      "attributed": 7556,
      "Bowl": 7557,
      "widespread": 7558,
      "NOT": 7559,
      "1978": 7560,
      "typical": 7561,
      "breeding": 7562,
      "proposal": 7563,
      "mac": 7564,
      "represents": 7565,
      "enab": 7566,
      "Prote": 7567,
      "hits": 7568,
      "mel": 7569,
      "owners": 7570,
      "intention": 7571,
      "Philipp": 7572,
      "Fran": 7573,
      "scul": 7574,
      "variable": 7575,
      "camera": 7576,
      "nav": 7577,
      "vard": 7578,
      "asury": 7579,
      "iants": 7580,
      "diss": 7581,
      "bling": 7582,
      "download": 7583,
      "crossed": 7584,
      "Sunday": 7585,
      "aggress": 7586,
      "happy": 7587,
      "lights": 7588,
      "volatility": 7589,
      "permanent": 7590,
      "Sof": 7591,
      "stret": 7592,
      "Nether": 7593,
      "Maria": 7594,
      "borne": 7595,
      "shots": 7596,
      "premise": 7597,
      "asks": 7598,
      "communities": 7599,
      "sustain": 7600,
      "Mort": 7601,
      "mine": 7602,
      "1938": 7603,
      "neutr": 7604,
      "issance": 7605,
      "ogy": 7606,
      "coverage": 7607,
      "isms": 7608,
      "send": 7609,
      "uzz": 7610,
      "illustr": 7611,
      "minister": 7612,
      "looked": 7613,
      "Risks": 7614,
      "Aud": 7615,
      "Your": 7616,
      "admitted": 7617,
      "Indenture": 7618,
      "Polic": 7619,
      "ili": 7620,
      "preferred": 7621,
      "warm": 7622,
      "unrealized": 7623,
      "emies": 7624,
      "ieve": 7625,
      "poll": 7626,
      "Acquis": 7627,
      "politics": 7628,
      "Science": 7629,
      "Gordon": 7630,
      "AM": 7631,
      "Kim": 7632,
      "Matt": 7633,
      "NBA": 7634,
      "fers": 7635,
      "ju": 7636,
      "1936": 7637,
      "ighters": 7638,
      "Project": 7639,
      "Singles": 7640,
      "115": 7641,
      "aer": 7642,
      "blow": 7643,
      "Whit": 7644,
      "reading": 7645,
      "industries": 7646,
      "Nel": 7647,
      "Beach": 7648,
      "kingdom": 7649,
      "Personal": 7650,
      "inum": 7651,
      "actory": 7652,
      "interrup": 7653,
      "shel": 7654,
      "1962": 7655,
      "Military": 7656,
      "convert": 7657,
      "Korea": 7658,
      "Plot": 7659,
      "solid": 7660,
      "125": 7661,
      "Assem": 7662,
      "insurance": 7663,
      "Accumulated": 7664,
      "chemical": 7665,
      "informed": 7666,
      "Jane": 7667,
      "assistance": 7668,
      "resolved": 7669,
      "ishes": 7670,
      "ansas": 7671,
      "announce": 7672,
      "flex": 7673,
      "Illinois": 7674,
      "Master": 7675,
      "Murr": 7676,
      "dat": 7677,
      "defect": 7678,
      "Norman": 7679,
      "spective": 7680,
      "strengthen": 7681,
      "ima": 7682,
      "Alan": 7683,
      "Naval": 7684,
      "cen": 7685,
      "1933": 7686,
      "governmental": 7687,
      "considerable": 7688,
      "interpretation": 7689,
      "unfavorable": 7690,
      "bear": 7691,
      "otic": 7692,
      "notice": 7693,
      "evaluating": 7694,
      "penalty": 7695,
      "portrayed": 7696,
      "Shortly": 7697,
      "cation": 7698,
      "inton": 7699,
      "governments": 7700,
      "sequel": 7701,
      "debted": 7702,
      "appearing": 7703,
      "targets": 7704,
      "arrested": 7705,
      "knots": 7706,
      "cks": 7707,
      "Indones": 7708,
      "characteristics": 7709,
      "basket": 7710,
      "threats": 7711,
      "pand": 7712,
      "ione": 7713,
      "difference": 7714,
      "demn": 7715,
      "Additional": 7716,
      "revolution": 7717,
      "Doc": 7718,
      "OS": 7719,
      "Tun": 7720,
      "hearing": 7721,
      "acre": 7722,
      "afford": 7723,
      "intent": 7724,
      "apping": 7725,
      "glas": 7726,
      "survived": 7727,
      "Jac": 7728,
      "abol": 7729,
      "ensions": 7730,
      "reality": 7731,
      "volcan": 7732,
      "Imp": 7733,
      "rural": 7734,
      "inity": 7735,
      "acid": 7736,
      "aked": 7737,
      "Adams": 7738,
      "describing": 7739,
      "Today": 7740,
      "tical": 7741,
      "ani": 7742,
      "los": 7743,
      "composer": 7744,
      "meters": 7745,
      "Roy": 7746,
      "posted": 7747,
      "Moon": 7748,
      "Tony": 7749,
      "recover": 7750,
      "aine": 7751,
      "Philip": 7752,
      "Simon": 7753,
      "Gun": 7754,
      "Rand": 7755,
      "Indicate": 7756,
      "Cre": 7757,
      "ulate": 7758,
      "ieval": 7759,
      "frag": 7760,
      "Ross": 7761,
      "religion": 7762,
      "hotel": 7763,
      "Stanley": 7764,
      "wrong": 7765,
      "Five": 7766,
      "memory": 7767,
      "Pad": 7768,
      "recalled": 7769,
      "fraud": 7770,
      "Construction": 7771,
      "everything": 7772,
      "adapted": 7773,
      "Nas": 7774,
      "convent": 7775,
      "prohib": 7776,
      "objects": 7777,
      "olf": 7778,
      "aret": 7779,
      "Arsen": 7780,
      "skill": 7781,
      "Os": 7782,
      "acknow": 7783,
      "factory": 7784,
      "1956": 7785,
      "hypo": 7786,
      "Enterprise": 7787,
      "04": 7788,
      "athlet": 7789,
      "towns": 7790,
      "establishment": 7791,
      "Deriv": 7792,
      "mud": 7793,
      "tied": 7794,
      "ilation": 7795,
      "absolute": 7796,
      "speak": 7797,
      "ression": 7798,
      "considering": 7799,
      "insula": 7800,
      "divers": 7801,
      "atell": 7802,
      "shr": 7803,
      "sequently": 7804,
      "seeing": 7805,
      "iang": 7806,
      "prisoners": 7807,
      "slowly": 7808,
      "Vill": 7809,
      "iture": 7810,
      "invited": 7811,
      "medal": 7812,
      "someone": 7813,
      "Control": 7814,
      "Maryland": 7815,
      "incentives": 7816,
      "Douglas": 7817,
      "104": 7818,
      "oldest": 7819,
      "sor": 7820,
      "itage": 7821,
      "chann": 7822,
      "ears": 7823,
      "classic": 7824,
      "graphic": 7825,
      "ipe": 7826,
      "enemies": 7827,
      "proto": 7828,
      "Int": 7829,
      "Instead": 7830,
      "theatre": 7831,
      "negoti": 7832,
      "Fal": 7833,
      "discovery": 7834,
      "opera": 7835,
      "phoon": 7836,
      "7th": 7837,
      "reform": 7838,
      "resent": 7839,
      "chapter": 7840,
      "05": 7841,
      "ora": 7842,
      "accom": 7843,
      "prove": 7844,
      "Gram": 7845,
      "scar": 7846,
      "liquidity": 7847,
      "CM": 7848,
      "Id": 7849,
      "bark": 7850,
      "eighth": 7851,
      "Death": 7852,
      "Adam": 7853,
      "1930s": 7854,
      "proprietary": 7855,
      "Theatre": 7856,
      "Lar": 7857,
      "Ur": 7858,
      "neither": 7859,
      "supporters": 7860,
      "buy": 7861,
      "identical": 7862,
      "Trade": 7863,
      "anean": 7864,
      "journey": 7865,
      "debtedness": 7866,
      "regiment": 7867,
      "factor": 7868,
      "deaths": 7869,
      "starts": 7870,
      "Donald": 7871,
      "faith": 7872,
      "vide": 7873,
      "passage": 7874,
      "evening": 7875,
      "Scully": 7876,
      "falls": 7877,
      "frequent": 7878,
      "accumulated": 7879,
      "iamond": 7880,
      "ography": 7881,
      "Kat": 7882,
      "lies": 7883,
      "guidance": 7884,
      "faces": 7885,
      "Transport": 7886,
      "citizens": 7887,
      "plaintiffs": 7888,
      "Girl": 7889,
      "sud": 7890,
      "victor": 7891,
      "iley": 7892,
      "certified": 7893,
      "plate": 7894,
      "105": 7895,
      "bra": 7896,
      "Energy": 7897,
      "Cleve": 7898,
      "Off": 7899,
      "Treat": 7900,
      "leton": 7901,
      "Constitution": 7902,
      "Hamilton": 7903,
      "micro": 7904,
      "utive": 7905,
      "Index": 7906,
      "avia": 7907,
      "oking": 7908,
      "stood": 7909,
      "guil": 7910,
      "determining": 7911,
      "Throughout": 7912,
      "theastern": 7913,
      "agencies": 7914,
      "populations": 7915,
      "debate": 7916,
      "demol": 7917,
      "contingencies": 7918,
      "Jord": 7919,
      "bishop": 7920,
      "imet": 7921,
      "attached": 7922,
      "spin": 7923,
      "divisions": 7924,
      "Assembly": 7925,
      "Murray": 7926,
      "Ok": 7927,
      "dream": 7928,
      "begun": 7929,
      "Inline": 7930,
      "boys": 7931,
      "Arsenal": 7932,
      "07": 7933,
      "onia": 7934,
      "ivals": 7935,
      "Amort": 7936,
      "coastal": 7937,
      "diluted": 7938,
      "deposits": 7939,
      "Amount": 7940,
      "Supplemental": 7941,
      "shift": 7942,
      "deployed": 7943,
      "Kenned": 7944,
      "accused": 7945,
      "channels": 7946,
      "ić": 7947,
      "rust": 7948,
      "departure": 7949,
      "fictional": 7950,
      "Sweden": 7951,
      "Hou": 7952,
      "orb": 7953,
      "alo": 7954,
      "ationally": 7955,
      "annually": 7956,
      "1953": 7957,
      "1957": 7958,
      "Employ": 7959,
      "Build": 7960,
      "Roger": 7961,
      "yield": 7962,
      "weigh": 7963,
      "geopolitical": 7964,
      "ologist": 7965,
      "patent": 7966,
      "ultimate": 7967,
      "Fac": 7968,
      "Low": 7969,
      "kno": 7970,
      "map": 7971,
      "accrued": 7972,
      "provin": 7973,
      "strongly": 7974,
      "Furthermore": 7975,
      "Rate": 7976,
      "ician": 7977,
      "parliament": 7978,
      "bourne": 7979,
      "iod": 7980,
      "ja": 7981,
      "facing": 7982,
      "enny": 7983,
      "males": 7984,
      "ento": 7985,
      "1958": 7986,
      "Howard": 7987,
      "reinforce": 7988,
      "bonds": 7989,
      "thesis": 7990,
      "asc": 7991,
      "rols": 7992,
      "terror": 7993,
      "conce": 7994,
      "ira": 7995,
      "16th": 7996,
      "depends": 7997,
      "carbon": 7998,
      "immediate": 7999
    },
    "merges": [
      [
        "t",
        "h"
      ],
      [
        "i",
        "n"
      ],
      [
        "e",
        "r"
      ],
      [
        "a",
        "n"
      ],
      [
        "o",
        "n"
      ],
      [
        "th",
        "e"
      ],
      [
        "r",
        "e"
      ],
      [
        "a",
        "t"
      ],
      [
        "e",
        "d"
      ],
      [
        "e",
        "n"
      ],
      [
        "o",
        "r"
      ],
      [
        "e",
        "s"
      ],
      [
        "a",
        "l"
      ],
      [
        "an",
        "d"
      ],
      [
        "a",
        "s"
      ],
      [
        "a",
        "r"
      ],
      [
        "o",
        "f"
      ],
      [
        "i",
        "s"
      ],
      [
        "t",
        "o"
      ],
      [
        "in",
        "g"
      ],
      [
        "i",
        "t"
      ],
      [
        "o",
        "u"
      ],
      [
        "i",
        "on"
      ],
      [
        "i",
        "c"
      ],
      [
        "r",
        "o"
      ],
      [
        "s",
        "t"
      ],
      [
        "l",
        "e"
      ],
      [
        "en",
        "t"
      ],
      [
        "i",
        "l"
      ],
      [
        "h",
        "e"
      ],
      [
        "a",
        "c"
      ],
      [
        "s",
        "e"
      ],
      [
        "o",
        "m"
      ],
      [
        "a",
        "d"
      ],
      [
        "l",
        "y"
      ],
      [
        "f",
        "or"
      ],
      [
        "c",
        "h"
      ],
      [
        "u",
        "n"
      ],
      [
        "v",
        "e"
      ],
      [
        "u",
        "r"
      ],
      [
        "a",
        "m"
      ],
      [
        "d",
        "e"
      ],
      [
        "c",
        "t"
      ],
      [
        "b",
        "e"
      ],
      [
        "t",
        "er"
      ],
      [
        "o",
        "l"
      ],
      [
        "i",
        "m"
      ],
      [
        "at",
        "ion"
      ],
      [
        "w",
        "as"
      ],
      [
        "i",
        "g"
      ],
      [
        "l",
        "o"
      ],
      [
        "c",
        "e"
      ],
      [
        "c",
        "on"
      ],
      [
        "s",
        "u"
      ],
      [
        "v",
        "er"
      ],
      [
        "i",
        "r"
      ],
      [
        "T",
        "he"
      ],
      [
        "a",
        "y"
      ],
      [
        "w",
        "h"
      ],
      [
        "u",
        "s"
      ],
      [
        "i",
        "th"
      ],
      [
        "2",
        "0"
      ],
      [
        "c",
        "om"
      ],
      [
        "i",
        "d"
      ],
      [
        "m",
        "ent"
      ],
      [
        "-",
        "@"
      ],
      [
        "@",
        "-@"
      ],
      [
        "ou",
        "r"
      ],
      [
        "e",
        "t"
      ],
      [
        "o",
        "t"
      ],
      [
        "w",
        "ith"
      ],
      [
        "a",
        "g"
      ],
      [
        "p",
        "ro"
      ],
      [
        "a",
        "b"
      ],
      [
        "th",
        "at"
      ],
      [
        "p",
        "er"
      ],
      [
        "a",
        "re"
      ],
      [
        "t",
        "r"
      ],
      [
        "t",
        "e"
      ],
      [
        "b",
        "y"
      ],
      [
        "a",
        "in"
      ],
      [
        "th",
        "er"
      ],
      [
        "u",
        "t"
      ],
      [
        "i",
        "es"
      ],
      [
        "at",
        "e"
      ],
      [
        "a",
        "p"
      ],
      [
        "e",
        "x"
      ],
      [
        "re",
        "s"
      ],
      [
        "u",
        "l"
      ],
      [
        "es",
        "t"
      ],
      [
        "e",
        "l"
      ],
      [
        "t",
        "s"
      ],
      [
        "o",
        "w"
      ],
      [
        "ou",
        "n"
      ],
      [
        "I",
        "n"
      ],
      [
        "c",
        "l"
      ],
      [
        "p",
        "l"
      ],
      [
        "er",
        "s"
      ],
      [
        "1",
        "9"
      ],
      [
        "il",
        "l"
      ],
      [
        "q",
        "u"
      ],
      [
        "er",
        "e"
      ],
      [
        "h",
        "is"
      ],
      [
        "ro",
        "m"
      ],
      [
        "i",
        "v"
      ],
      [
        "p",
        "e"
      ],
      [
        "i",
        "f"
      ],
      [
        "at",
        "ed"
      ],
      [
        "i",
        "ve"
      ],
      [
        "f",
        "rom"
      ],
      [
        "s",
        "h"
      ],
      [
        "m",
        "o"
      ],
      [
        "it",
        "y"
      ],
      [
        "es",
        "s"
      ],
      [
        "d",
        "u"
      ],
      [
        "al",
        "l"
      ],
      [
        "n",
        "e"
      ],
      [
        "p",
        "o"
      ],
      [
        "i",
        "al"
      ],
      [
        "b",
        "er"
      ],
      [
        "u",
        "m"
      ],
      [
        "un",
        "k"
      ],
      [
        "ac",
        "t"
      ],
      [
        "ar",
        "t"
      ],
      [
        "ig",
        "h"
      ],
      [
        "l",
        "d"
      ],
      [
        "u",
        "d"
      ],
      [
        "ar",
        "d"
      ],
      [
        "w",
        "e"
      ],
      [
        "ic",
        "h"
      ],
      [
        "en",
        "d"
      ],
      [
        "p",
        "r"
      ],
      [
        "e",
        "m"
      ],
      [
        "an",
        "t"
      ],
      [
        "c",
        "o"
      ],
      [
        "s",
        "o"
      ],
      [
        "i",
        "p"
      ],
      [
        "or",
        "t"
      ],
      [
        "m",
        "an"
      ],
      [
        "g",
        "e"
      ],
      [
        "e",
        "ar"
      ],
      [
        "w",
        "ere"
      ],
      [
        "a",
        "k"
      ],
      [
        "ion",
        "s"
      ],
      [
        "o",
        "d"
      ],
      [
        "re",
        "d"
      ],
      [
        "on",
        "g"
      ],
      [
        "n",
        "ot"
      ],
      [
        "wh",
        "ich"
      ],
      [
        "i",
        "e"
      ],
      [
        "h",
        "a"
      ],
      [
        "g",
        "h"
      ],
      [
        "20",
        "2"
      ],
      [
        "com",
        "p"
      ],
      [
        "f",
        "e"
      ],
      [
        "st",
        "r"
      ],
      [
        "0",
        "0"
      ],
      [
        "is",
        "t"
      ],
      [
        "a",
        "f"
      ],
      [
        "ou",
        "t"
      ],
      [
        "d",
        "er"
      ],
      [
        "s",
        "er"
      ],
      [
        "am",
        "e"
      ],
      [
        "o",
        "ther"
      ],
      [
        "lo",
        "w"
      ],
      [
        "ab",
        "le"
      ],
      [
        "g",
        "r"
      ],
      [
        "o",
        "p"
      ],
      [
        "on",
        "e"
      ],
      [
        "ac",
        "k"
      ],
      [
        "h",
        "ad"
      ],
      [
        "ar",
        "y"
      ],
      [
        "is",
        "h"
      ],
      [
        "ou",
        "gh"
      ],
      [
        "ment",
        "s"
      ],
      [
        "i",
        "b"
      ],
      [
        "ig",
        "n"
      ],
      [
        "ation",
        "s"
      ],
      [
        "c",
        "r"
      ],
      [
        "i",
        "an"
      ],
      [
        "it",
        "s"
      ],
      [
        "ag",
        "e"
      ],
      [
        "ou",
        "ld"
      ],
      [
        "u",
        "re"
      ],
      [
        "e",
        "p"
      ],
      [
        "in",
        "e"
      ],
      [
        "c",
        "k"
      ],
      [
        "u",
        "e"
      ],
      [
        "a",
        "v"
      ],
      [
        "it",
        "ion"
      ],
      [
        "o",
        "ver"
      ],
      [
        "ic",
        "al"
      ],
      [
        "i",
        "z"
      ],
      [
        "in",
        "cl"
      ],
      [
        "as",
        "t"
      ],
      [
        "as",
        "s"
      ],
      [
        "i",
        "a"
      ],
      [
        "c",
        "re"
      ],
      [
        "for",
        "m"
      ],
      [
        "S",
        "t"
      ],
      [
        "p",
        "ort"
      ],
      [
        "oun",
        "d"
      ],
      [
        "u",
        "p"
      ],
      [
        "w",
        "or"
      ],
      [
        "C",
        "h"
      ],
      [
        "ha",
        "ve"
      ],
      [
        "f",
        "in"
      ],
      [
        "con",
        "t"
      ],
      [
        "c",
        "ur"
      ],
      [
        "c",
        "or"
      ],
      [
        "d",
        "is"
      ],
      [
        "a",
        "w"
      ],
      [
        "o",
        "re"
      ],
      [
        "i",
        "de"
      ],
      [
        "i",
        "re"
      ],
      [
        "en",
        "s"
      ],
      [
        "l",
        "l"
      ],
      [
        "h",
        "er"
      ],
      [
        "t",
        "im"
      ],
      [
        "re",
        "e"
      ],
      [
        "ar",
        "k"
      ],
      [
        "ou",
        "s"
      ],
      [
        "igh",
        "t"
      ],
      [
        "du",
        "ct"
      ],
      [
        "b",
        "ut"
      ],
      [
        "an",
        "y"
      ],
      [
        "an",
        "ce"
      ],
      [
        "p",
        "art"
      ],
      [
        "an",
        "c"
      ],
      [
        "f",
        "er"
      ],
      [
        "f",
        "ir"
      ],
      [
        "l",
        "i"
      ],
      [
        "at",
        "er"
      ],
      [
        "ac",
        "h"
      ],
      [
        "t",
        "w"
      ],
      [
        "as",
        "e"
      ],
      [
        "re",
        "n"
      ],
      [
        "as",
        "ed"
      ],
      [
        "m",
        "er"
      ],
      [
        "incl",
        "ud"
      ],
      [
        "e",
        "v"
      ],
      [
        "s",
        "s"
      ],
      [
        "re",
        "v"
      ],
      [
        "a",
        "u"
      ],
      [
        "al",
        "so"
      ],
      [
        "v",
        "ic"
      ],
      [
        "the",
        "ir"
      ],
      [
        "y",
        "ear"
      ],
      [
        "it",
        "ies"
      ],
      [
        "ow",
        "n"
      ],
      [
        "t",
        "ed"
      ],
      [
        "b",
        "l"
      ],
      [
        "m",
        "on"
      ],
      [
        "1",
        "0"
      ],
      [
        "b",
        "o"
      ],
      [
        "an",
        "s"
      ],
      [
        "1",
        "8"
      ],
      [
        "20",
        "0"
      ],
      [
        "fir",
        "st"
      ],
      [
        "m",
        "e"
      ],
      [
        "b",
        "r"
      ],
      [
        "ur",
        "ing"
      ],
      [
        "al",
        "ly"
      ],
      [
        "m",
        "ber"
      ],
      [
        "k",
        "e"
      ],
      [
        "in",
        "ter"
      ],
      [
        "re",
        "l"
      ],
      [
        "an",
        "g"
      ],
      [
        "u",
        "st"
      ],
      [
        "t",
        "ain"
      ],
      [
        "T",
        "h"
      ],
      [
        "ar",
        "r"
      ],
      [
        "p",
        "res"
      ],
      [
        "or",
        "y"
      ],
      [
        "at",
        "ing"
      ],
      [
        "r",
        "it"
      ],
      [
        "at",
        "t"
      ],
      [
        "h",
        "as"
      ],
      [
        "l",
        "and"
      ],
      [
        "i",
        "le"
      ],
      [
        "en",
        "ce"
      ],
      [
        "re",
        "g"
      ],
      [
        "at",
        "es"
      ],
      [
        "wh",
        "o"
      ],
      [
        "C",
        "om"
      ],
      [
        "e",
        "f"
      ],
      [
        "m",
        "ay"
      ],
      [
        "c",
        "ent"
      ],
      [
        "s",
        "p"
      ],
      [
        "a",
        "il"
      ],
      [
        "th",
        "is"
      ],
      [
        "om",
        "e"
      ],
      [
        "i",
        "ed"
      ],
      [
        "H",
        "e"
      ],
      [
        "d",
        "es"
      ],
      [
        "pro",
        "duct"
      ],
      [
        "o",
        "k"
      ],
      [
        "or",
        "s"
      ],
      [
        "be",
        "en"
      ],
      [
        "ill",
        "ion"
      ],
      [
        "o",
        "per"
      ],
      [
        "po",
        "s"
      ],
      [
        "f",
        "ic"
      ],
      [
        "ct",
        "ion"
      ],
      [
        "tim",
        "e"
      ],
      [
        "U",
        "n"
      ],
      [
        "a",
        "x"
      ],
      [
        "el",
        "l"
      ],
      [
        "m",
        "in"
      ],
      [
        "ol",
        "d"
      ],
      [
        "wor",
        "k"
      ],
      [
        "ac",
        "e"
      ],
      [
        "ad",
        "e"
      ],
      [
        "a",
        "ir"
      ],
      [
        "in",
        "v"
      ],
      [
        "c",
        "ess"
      ],
      [
        "pl",
        "ay"
      ],
      [
        "o",
        "g"
      ],
      [
        "in",
        "t"
      ],
      [
        "s",
        "on"
      ],
      [
        "tw",
        "o"
      ],
      [
        "A",
        "n"
      ],
      [
        "t",
        "y"
      ],
      [
        "cor",
        "d"
      ],
      [
        "ent",
        "s"
      ],
      [
        "su",
        "b"
      ],
      [
        ".",
        "@"
      ],
      [
        "@",
        ".@"
      ],
      [
        "c",
        "us"
      ],
      [
        "ne",
        "w"
      ],
      [
        "c",
        "al"
      ],
      [
        "ing",
        "s"
      ],
      [
        "f",
        "r"
      ],
      [
        "C",
        "on"
      ],
      [
        "c",
        "oun"
      ],
      [
        "as",
        "h"
      ],
      [
        "af",
        "ter"
      ],
      [
        "su",
        "l"
      ],
      [
        "c",
        "ed"
      ],
      [
        "s",
        "pe"
      ],
      [
        "con",
        "d"
      ],
      [
        "en",
        "er"
      ],
      [
        "fe",
        "ct"
      ],
      [
        "p",
        "h"
      ],
      [
        "if",
        "ic"
      ],
      [
        "v",
        "ed"
      ],
      [
        ",",
        "@"
      ],
      [
        "@",
        ",@"
      ],
      [
        "n",
        "o"
      ],
      [
        "com",
        "e"
      ],
      [
        "it",
        "ed"
      ],
      [
        "D",
        "e"
      ],
      [
        "in",
        "to"
      ],
      [
        "the",
        "y"
      ],
      [
        "f",
        "ore"
      ],
      [
        "in",
        "d"
      ],
      [
        "it",
        "e"
      ],
      [
        "W",
        "e"
      ],
      [
        "con",
        "s"
      ],
      [
        "ex",
        "p"
      ],
      [
        "f",
        "il"
      ],
      [
        "1",
        "5"
      ],
      [
        "includ",
        "ing"
      ],
      [
        "ser",
        "vic"
      ],
      [
        "m",
        "ain"
      ],
      [
        "1",
        "2"
      ],
      [
        "I",
        "t"
      ],
      [
        "c",
        "er"
      ],
      [
        "ur",
        "n"
      ],
      [
        "e",
        "ver"
      ],
      [
        "w",
        "ould"
      ],
      [
        "sh",
        "ip"
      ],
      [
        "su",
        "ch"
      ],
      [
        "mo",
        "re"
      ],
      [
        "re",
        "sul"
      ],
      [
        "d",
        "r"
      ],
      [
        "ab",
        "il"
      ],
      [
        "ver",
        "s"
      ],
      [
        "3",
        "0"
      ],
      [
        "un",
        "der"
      ],
      [
        "ar",
        "ch"
      ],
      [
        "at",
        "ive"
      ],
      [
        "am",
        "p"
      ],
      [
        "p",
        "re"
      ],
      [
        "ad",
        "d"
      ],
      [
        "s",
        "he"
      ],
      [
        "c",
        "i"
      ],
      [
        "an",
        "n"
      ],
      [
        "u",
        "al"
      ],
      [
        "an",
        "ge"
      ],
      [
        "ro",
        "w"
      ],
      [
        "per",
        "i"
      ],
      [
        "as",
        "on"
      ],
      [
        "E",
        "n"
      ],
      [
        "p",
        "t"
      ],
      [
        "be",
        "t"
      ],
      [
        "r",
        "ough"
      ],
      [
        "com",
        "m"
      ],
      [
        "A",
        "s"
      ],
      [
        "l",
        "es"
      ],
      [
        "w",
        "ay"
      ],
      [
        "h",
        "im"
      ],
      [
        "m",
        "ark"
      ],
      [
        "c",
        "ould"
      ],
      [
        "s",
        "y"
      ],
      [
        "s",
        "to"
      ],
      [
        "A",
        "r"
      ],
      [
        "f",
        "l"
      ],
      [
        "ol",
        "low"
      ],
      [
        "us",
        "ed"
      ],
      [
        "i",
        "x"
      ],
      [
        "ic",
        "k"
      ],
      [
        "ic",
        "e"
      ],
      [
        "in",
        "ess"
      ],
      [
        "1",
        "3"
      ],
      [
        "su",
        "p"
      ],
      [
        "ve",
        "lo"
      ],
      [
        "pro",
        "v"
      ],
      [
        "w",
        "ard"
      ],
      [
        "A",
        "u"
      ],
      [
        "be",
        "c"
      ],
      [
        "b",
        "us"
      ],
      [
        "g",
        "o"
      ],
      [
        "ak",
        "e"
      ],
      [
        "j",
        "e"
      ],
      [
        "mo",
        "st"
      ],
      [
        "d",
        "o"
      ],
      [
        "N",
        "e"
      ],
      [
        "le",
        "ct"
      ],
      [
        "R",
        "o"
      ],
      [
        "i",
        "ous"
      ],
      [
        "R",
        "e"
      ],
      [
        "c",
        "es"
      ],
      [
        "th",
        "an"
      ],
      [
        "d",
        "uring"
      ],
      [
        "F",
        "or"
      ],
      [
        "wh",
        "en"
      ],
      [
        "1",
        "4"
      ],
      [
        "end",
        "ed"
      ],
      [
        "t",
        "ax"
      ],
      [
        "1",
        "6"
      ],
      [
        "1",
        "7"
      ],
      [
        "ic",
        "t"
      ],
      [
        "A",
        "l"
      ],
      [
        "se",
        "t"
      ],
      [
        "ation",
        "al"
      ],
      [
        "c",
        "ol"
      ],
      [
        "h",
        "igh"
      ],
      [
        "m",
        "ed"
      ],
      [
        "ter",
        "s"
      ],
      [
        "c",
        "ap"
      ],
      [
        "is",
        "s"
      ],
      [
        "p",
        "or"
      ],
      [
        "n",
        "et"
      ],
      [
        "O",
        "n"
      ],
      [
        "c",
        "an"
      ],
      [
        "f",
        "ul"
      ],
      [
        "a",
        "id"
      ],
      [
        "iz",
        "ed"
      ],
      [
        "i",
        "o"
      ],
      [
        "th",
        "rough"
      ],
      [
        "re",
        "t"
      ],
      [
        "ch",
        "ar"
      ],
      [
        "im",
        "p"
      ],
      [
        "u",
        "bl"
      ],
      [
        "il",
        "y"
      ],
      [
        "in",
        "cre"
      ],
      [
        "je",
        "ct"
      ],
      [
        "velo",
        "p"
      ],
      [
        "pe",
        "ct"
      ],
      [
        "te",
        "m"
      ],
      [
        "str",
        "u"
      ],
      [
        "t",
        "on"
      ],
      [
        "ag",
        "ain"
      ],
      [
        "il",
        "d"
      ],
      [
        "bus",
        "iness"
      ],
      [
        "re",
        "qu"
      ],
      [
        "o",
        "b"
      ],
      [
        "g",
        "an"
      ],
      [
        "3",
        "1"
      ],
      [
        "anc",
        "ial"
      ],
      [
        "th",
        "ree"
      ],
      [
        "d",
        "ay"
      ],
      [
        "we",
        "en"
      ],
      [
        "f",
        "ollow"
      ],
      [
        "t",
        "ing"
      ],
      [
        "L",
        "e"
      ],
      [
        "u",
        "se"
      ],
      [
        "S",
        "e"
      ],
      [
        "1",
        "1"
      ],
      [
        "n",
        "um"
      ],
      [
        "l",
        "ar"
      ],
      [
        "W",
        "h"
      ],
      [
        "th",
        "ough"
      ],
      [
        "ul",
        "t"
      ],
      [
        "t",
        "en"
      ],
      [
        "ter",
        "n"
      ],
      [
        "s",
        "ome"
      ],
      [
        "u",
        "ary"
      ],
      [
        "st",
        "ate"
      ],
      [
        "c",
        "y"
      ],
      [
        "b",
        "u"
      ],
      [
        "bet",
        "ween"
      ],
      [
        "wh",
        "ere"
      ],
      [
        "product",
        "s"
      ],
      [
        "ic",
        "an"
      ],
      [
        "de",
        "velop"
      ],
      [
        "to",
        "m"
      ],
      [
        "re",
        "le"
      ],
      [
        "the",
        "se"
      ],
      [
        "m",
        "illion"
      ],
      [
        "is",
        "ion"
      ],
      [
        "N",
        "o"
      ],
      [
        "on",
        "ly"
      ],
      [
        "s",
        "ign"
      ],
      [
        "fil",
        "m"
      ],
      [
        "ab",
        "out"
      ],
      [
        "ic",
        "s"
      ],
      [
        "19",
        "9"
      ],
      [
        "servic",
        "es"
      ],
      [
        "n",
        "or"
      ],
      [
        "w",
        "ell"
      ],
      [
        "year",
        "s"
      ],
      [
        "p",
        "ur"
      ],
      [
        "en",
        "g"
      ],
      [
        "re",
        "cord"
      ],
      [
        "rev",
        "en"
      ],
      [
        "the",
        "m"
      ],
      [
        "ie",
        "w"
      ],
      [
        "l",
        "ed"
      ],
      [
        "g",
        "ame"
      ],
      [
        "i",
        "red"
      ],
      [
        "Ne",
        "w"
      ],
      [
        "cont",
        "in"
      ],
      [
        "ol",
        "og"
      ],
      [
        "c",
        "ial"
      ],
      [
        "is",
        "e"
      ],
      [
        "a",
        "th"
      ],
      [
        "v",
        "al"
      ],
      [
        "wh",
        "ile"
      ],
      [
        "ul",
        "ar"
      ],
      [
        "J",
        "o"
      ],
      [
        "l",
        "ater"
      ],
      [
        "u",
        "res"
      ],
      [
        "g",
        "ener"
      ],
      [
        "b",
        "ased"
      ],
      [
        "s",
        "ing"
      ],
      [
        "ex",
        "t"
      ],
      [
        "k",
        "s"
      ],
      [
        "s",
        "ong"
      ],
      [
        "tr",
        "ans"
      ],
      [
        "00",
        "0"
      ],
      [
        "ve",
        "l"
      ],
      [
        "of",
        "f"
      ],
      [
        "iv",
        "ed"
      ],
      [
        "ch",
        "o"
      ],
      [
        "A",
        "mer"
      ],
      [
        "id",
        "ent"
      ],
      [
        "al",
        "es"
      ],
      [
        "inv",
        "est"
      ],
      [
        "co",
        "st"
      ],
      [
        "mark",
        "et"
      ],
      [
        "se",
        "ason"
      ],
      [
        "B",
        "r"
      ],
      [
        "ou",
        "th"
      ],
      [
        "_",
        "_"
      ],
      [
        "m",
        "ade"
      ],
      [
        "e",
        "qu"
      ],
      [
        "w",
        "ill"
      ],
      [
        "Com",
        "p"
      ],
      [
        "ire",
        "ct"
      ],
      [
        "peri",
        "od"
      ],
      [
        "le",
        "g"
      ],
      [
        "n",
        "ing"
      ],
      [
        "cur",
        "ren"
      ],
      [
        "d",
        "if"
      ],
      [
        "con",
        "tr"
      ],
      [
        "ir",
        "d"
      ],
      [
        "p",
        "ol"
      ],
      [
        "ther",
        "e"
      ],
      [
        "th",
        "s"
      ],
      [
        "re",
        "ce"
      ],
      [
        "w",
        "rit"
      ],
      [
        "st",
        "em"
      ],
      [
        "p",
        "ar"
      ],
      [
        "m",
        "at"
      ],
      [
        "en",
        "se"
      ],
      [
        "se",
        "cond"
      ],
      [
        "ro",
        "ss"
      ],
      [
        "es",
        "e"
      ],
      [
        "p",
        "ubl"
      ],
      [
        "re",
        "at"
      ],
      [
        "l",
        "ong"
      ],
      [
        "se",
        "l"
      ],
      [
        "au",
        "se"
      ],
      [
        "m",
        "y"
      ],
      [
        "du",
        "e"
      ],
      [
        "the",
        "n"
      ],
      [
        "u",
        "b"
      ],
      [
        "g",
        "u"
      ],
      [
        "c",
        "lo"
      ],
      [
        "num",
        "ber"
      ],
      [
        "in",
        "come"
      ],
      [
        "f",
        "our"
      ],
      [
        "in",
        "s"
      ],
      [
        "5",
        "0"
      ],
      [
        "T",
        "his"
      ],
      [
        "on",
        "d"
      ],
      [
        "ish",
        "ed"
      ],
      [
        "cer",
        "tain"
      ],
      [
        "be",
        "fore"
      ],
      [
        "202",
        "4"
      ],
      [
        "abil",
        "ity"
      ],
      [
        "add",
        "ition"
      ],
      [
        "sto",
        "ck"
      ],
      [
        "again",
        "st"
      ],
      [
        "S",
        "h"
      ],
      [
        "fin",
        "ancial"
      ],
      [
        "b",
        "ack"
      ],
      [
        "k",
        "n"
      ],
      [
        "ap",
        "pe"
      ],
      [
        "man",
        "y"
      ],
      [
        "ib",
        "le"
      ],
      [
        "T",
        "r"
      ],
      [
        "al",
        "s"
      ],
      [
        "am",
        "es"
      ],
      [
        "i",
        "el"
      ],
      [
        "ter",
        "m"
      ],
      [
        "are",
        "d"
      ],
      [
        "b",
        "um"
      ],
      [
        "C",
        "l"
      ],
      [
        "i",
        "or"
      ],
      [
        "c",
        "all"
      ],
      [
        "ef",
        "fect"
      ],
      [
        "un",
        "e"
      ],
      [
        "u",
        "es"
      ],
      [
        "N",
        "or"
      ],
      [
        "le",
        "ad"
      ],
      [
        "te",
        "am"
      ],
      [
        "ow",
        "ever"
      ],
      [
        "cont",
        "ro"
      ],
      [
        "o",
        "c"
      ],
      [
        "r",
        "a"
      ],
      [
        "De",
        "ce"
      ],
      [
        "rel",
        "ated"
      ],
      [
        "202",
        "3"
      ],
      [
        "m",
        "a"
      ],
      [
        "S",
        "ep"
      ],
      [
        "Dece",
        "mber"
      ],
      [
        "p",
        "lo"
      ],
      [
        "o",
        "od"
      ],
      [
        "f",
        "act"
      ],
      [
        "ch",
        "n"
      ],
      [
        "l",
        "ine"
      ],
      [
        "E",
        "x"
      ],
      [
        "be",
        "ing"
      ],
      [
        "of",
        "fic"
      ],
      [
        "over",
        "n"
      ],
      [
        "er",
        "ed"
      ],
      [
        "se",
        "cur"
      ],
      [
        "sy",
        "stem"
      ],
      [
        "pres",
        "ent"
      ],
      [
        "v",
        "ing"
      ],
      [
        "Un",
        "ited"
      ],
      [
        "te",
        "mber"
      ],
      [
        "B",
        "o"
      ],
      [
        "as",
        "es"
      ],
      [
        "Sep",
        "tember"
      ],
      [
        "ro",
        "ad"
      ],
      [
        "m",
        "us"
      ],
      [
        "s",
        "ur"
      ],
      [
        "ou",
        "p"
      ],
      [
        "b",
        "illion"
      ],
      [
        "P",
        "ro"
      ],
      [
        "in",
        "ce"
      ],
      [
        "ch",
        "ange"
      ],
      [
        "it",
        "ions"
      ],
      [
        "A",
        "f"
      ],
      [
        "res",
        "s"
      ],
      [
        "a",
        "ve"
      ],
      [
        "ch",
        "ang"
      ],
      [
        "li",
        "ke"
      ],
      [
        "an",
        "k"
      ],
      [
        "M",
        "ay"
      ],
      [
        "P",
        "r"
      ],
      [
        "spe",
        "c"
      ],
      [
        "des",
        "ign"
      ],
      [
        "v",
        "ar"
      ],
      [
        "al",
        "bum"
      ],
      [
        "se",
        "ver"
      ],
      [
        "su",
        "c"
      ],
      [
        "st",
        "and"
      ],
      [
        "c",
        "ash"
      ],
      [
        "o",
        "de"
      ],
      [
        "comp",
        "le"
      ],
      [
        "if",
        "e"
      ],
      [
        "ur",
        "y"
      ],
      [
        "al",
        "e"
      ],
      [
        ".",
        "."
      ],
      [
        "bo",
        "th"
      ],
      [
        "be",
        "l"
      ],
      [
        "m",
        "em"
      ],
      [
        "ep",
        "is"
      ],
      [
        "A",
        "c"
      ],
      [
        "at",
        "a"
      ],
      [
        "A",
        "t"
      ],
      [
        "r",
        "y"
      ],
      [
        "se",
        "ts"
      ],
      [
        "r",
        "is"
      ],
      [
        "fe",
        "at"
      ],
      [
        "o",
        "se"
      ],
      [
        "sh",
        "ow"
      ],
      [
        "2",
        "5"
      ],
      [
        "ar",
        "s"
      ],
      [
        "un",
        "t"
      ],
      [
        "is",
        "su"
      ],
      [
        "Comp",
        "any"
      ],
      [
        "is",
        "tr"
      ],
      [
        "is",
        "ed"
      ],
      [
        "y",
        "s"
      ],
      [
        "v",
        "en"
      ],
      [
        "sup",
        "port"
      ],
      [
        "bec",
        "ame"
      ],
      [
        "J",
        "an"
      ],
      [
        "ol",
        "id"
      ],
      [
        "re",
        "port"
      ],
      [
        "J",
        "une"
      ],
      [
        "char",
        "ac"
      ],
      [
        "n",
        "er"
      ],
      [
        "cus",
        "tom"
      ],
      [
        "I",
        "I"
      ],
      [
        "re",
        "main"
      ],
      [
        "202",
        "2"
      ],
      [
        "o",
        "st"
      ],
      [
        "l",
        "aw"
      ],
      [
        "te",
        "chn"
      ],
      [
        "B",
        "rit"
      ],
      [
        "F",
        "r"
      ],
      [
        "d",
        "irect"
      ],
      [
        "d",
        "own"
      ],
      [
        "f",
        "ound"
      ],
      [
        "202",
        "5"
      ],
      [
        "co",
        "ver"
      ],
      [
        "it",
        "al"
      ],
      [
        "lo",
        "ss"
      ],
      [
        "de",
        "c"
      ],
      [
        "o",
        "s"
      ],
      [
        "a",
        "im"
      ],
      [
        "B",
        "e"
      ],
      [
        "Af",
        "ter"
      ],
      [
        "th",
        "ird"
      ],
      [
        "u",
        "de"
      ],
      [
        "ific",
        "ant"
      ],
      [
        "includ",
        "ed"
      ],
      [
        "M",
        "arch"
      ],
      [
        "he",
        "ad"
      ],
      [
        "S",
        "he"
      ],
      [
        "ig",
        "in"
      ],
      [
        "ate",
        "ly"
      ],
      [
        "ial",
        "ly"
      ],
      [
        "l",
        "ess"
      ],
      [
        "w",
        "ar"
      ],
      [
        "un",
        "d"
      ],
      [
        "c",
        "ut"
      ],
      [
        "m",
        "iss"
      ],
      [
        "reven",
        "ue"
      ],
      [
        "g",
        "in"
      ],
      [
        "2",
        "4"
      ],
      [
        "G",
        "r"
      ],
      [
        "ser",
        "ies"
      ],
      [
        "g",
        "overn"
      ],
      [
        "A",
        "d"
      ],
      [
        "iv",
        "es"
      ],
      [
        "id",
        "ed"
      ],
      [
        "plo",
        "y"
      ],
      [
        "suc",
        "cess"
      ],
      [
        "19",
        "8"
      ],
      [
        "p",
        "rev"
      ],
      [
        "sh",
        "are"
      ],
      [
        "2",
        "8"
      ],
      [
        "d",
        "id"
      ],
      [
        "l",
        "a"
      ],
      [
        "h",
        "n"
      ],
      [
        "on",
        "s"
      ],
      [
        "u",
        "ch"
      ],
      [
        "t",
        "ion"
      ],
      [
        "follow",
        "ing"
      ],
      [
        "t",
        "al"
      ],
      [
        "p",
        "ed"
      ],
      [
        "J",
        "u"
      ],
[...]
